node {
  name: "global_step/Initializer/zeros"
  op: "Const"
  attr {
    key: "_class"
    value {
      list {
        s: "loc:@global_step"
      }
    }
  }
  attr {
    key: "_output_shapes"
    value {
      list {
        shape {
        }
      }
    }
  }
  attr {
    key: "dtype"
    value {
      type: DT_INT64
    }
  }
  attr {
    key: "value"
    value {
      tensor {
        dtype: DT_INT64
        tensor_shape {
        }
        int64_val: 0
      }
    }
  }
}
node {
  name: "global_step"
  op: "VariableV2"
  attr {
    key: "_class"
    value {
      list {
        s: "loc:@global_step"
      }
    }
  }
  attr {
    key: "_output_shapes"
    value {
      list {
        shape {
        }
      }
    }
  }
  attr {
    key: "container"
    value {
      s: ""
    }
  }
  attr {
    key: "dtype"
    value {
      type: DT_INT64
    }
  }
  attr {
    key: "shape"
    value {
      shape {
      }
    }
  }
  attr {
    key: "shared_name"
    value {
      s: ""
    }
  }
}
node {
  name: "global_step/Assign"
  op: "Assign"
  input: "global_step"
  input: "global_step/Initializer/zeros"
  attr {
    key: "T"
    value {
      type: DT_INT64
    }
  }
  attr {
    key: "_class"
    value {
      list {
        s: "loc:@global_step"
      }
    }
  }
  attr {
    key: "_output_shapes"
    value {
      list {
        shape {
        }
      }
    }
  }
  attr {
    key: "use_locking"
    value {
      b: true
    }
  }
  attr {
    key: "validate_shape"
    value {
      b: true
    }
  }
}
node {
  name: "global_step/read"
  op: "Identity"
  input: "global_step"
  attr {
    key: "T"
    value {
      type: DT_INT64
    }
  }
  attr {
    key: "_class"
    value {
      list {
        s: "loc:@global_step"
      }
    }
  }
  attr {
    key: "_output_shapes"
    value {
      list {
        shape {
        }
      }
    }
  }
}
node {
  name: "IsVariableInitialized"
  op: "IsVariableInitialized"
  input: "global_step"
  attr {
    key: "_class"
    value {
      list {
        s: "loc:@global_step"
      }
    }
  }
  attr {
    key: "_output_shapes"
    value {
      list {
        shape {
        }
      }
    }
  }
  attr {
    key: "dtype"
    value {
      type: DT_INT64
    }
  }
}
node {
  name: "cond/Switch"
  op: "Switch"
  input: "IsVariableInitialized"
  input: "IsVariableInitialized"
  attr {
    key: "T"
    value {
      type: DT_BOOL
    }
  }
  attr {
    key: "_output_shapes"
    value {
      list {
        shape {
        }
        shape {
        }
      }
    }
  }
}
node {
  name: "cond/switch_t"
  op: "Identity"
  input: "cond/Switch:1"
  attr {
    key: "T"
    value {
      type: DT_BOOL
    }
  }
  attr {
    key: "_output_shapes"
    value {
      list {
        shape {
        }
      }
    }
  }
}
node {
  name: "cond/switch_f"
  op: "Identity"
  input: "cond/Switch"
  attr {
    key: "T"
    value {
      type: DT_BOOL
    }
  }
  attr {
    key: "_output_shapes"
    value {
      list {
        shape {
        }
      }
    }
  }
}
node {
  name: "cond/pred_id"
  op: "Identity"
  input: "IsVariableInitialized"
  attr {
    key: "T"
    value {
      type: DT_BOOL
    }
  }
  attr {
    key: "_output_shapes"
    value {
      list {
        shape {
        }
      }
    }
  }
}
node {
  name: "cond/read/Switch"
  op: "RefSwitch"
  input: "global_step"
  input: "cond/pred_id"
  attr {
    key: "T"
    value {
      type: DT_INT64
    }
  }
  attr {
    key: "_class"
    value {
      list {
        s: "loc:@global_step"
      }
    }
  }
  attr {
    key: "_output_shapes"
    value {
      list {
        shape {
        }
        shape {
        }
      }
    }
  }
}
node {
  name: "cond/read"
  op: "Identity"
  input: "cond/read/Switch:1"
  attr {
    key: "T"
    value {
      type: DT_INT64
    }
  }
  attr {
    key: "_output_shapes"
    value {
      list {
        shape {
        }
      }
    }
  }
}
node {
  name: "cond/Switch_1"
  op: "Switch"
  input: "global_step/Initializer/zeros"
  input: "cond/pred_id"
  attr {
    key: "T"
    value {
      type: DT_INT64
    }
  }
  attr {
    key: "_class"
    value {
      list {
        s: "loc:@global_step"
      }
    }
  }
  attr {
    key: "_output_shapes"
    value {
      list {
        shape {
        }
        shape {
        }
      }
    }
  }
}
node {
  name: "cond/Merge"
  op: "Merge"
  input: "cond/Switch_1"
  input: "cond/read"
  attr {
    key: "N"
    value {
      i: 2
    }
  }
  attr {
    key: "T"
    value {
      type: DT_INT64
    }
  }
  attr {
    key: "_output_shapes"
    value {
      list {
        shape {
        }
        shape {
        }
      }
    }
  }
}
node {
  name: "add/y"
  op: "Const"
  attr {
    key: "_output_shapes"
    value {
      list {
        shape {
        }
      }
    }
  }
  attr {
    key: "dtype"
    value {
      type: DT_INT64
    }
  }
  attr {
    key: "value"
    value {
      tensor {
        dtype: DT_INT64
        tensor_shape {
        }
        int64_val: 0
      }
    }
  }
}
node {
  name: "add"
  op: "Add"
  input: "cond/Merge"
  input: "add/y"
  attr {
    key: "T"
    value {
      type: DT_INT64
    }
  }
  attr {
    key: "_output_shapes"
    value {
      list {
        shape {
        }
      }
    }
  }
}
node {
  name: "Const"
  op: "Const"
  device: "/device:CPU:0"
  attr {
    key: "_output_shapes"
    value {
      list {
        shape {
          dim {
            size: 7995
          }
          dim {
            size: 5
          }
        }
      }
    }
  }
  attr {
    key: "dtype"
    value {
      type: DT_FLOAT
    }
  }
  attr {
    key: "value"
    value {
      tensor {
        dtype: DT_FLOAT
        tensor_shape {
          dim {
            size: 7995
          }
          dim {
            size: 5
          }
        }
        tensor_content: "\000\000\000\000\211\332#<p\330\243<j\277\365<\014\320#=\211\332#<p\330\243<j\277\365<\014\320#=2\274L=p\330\243<j\277\365<\014\320#=2\274L=\031\243u=j\277\365<\014\320#=2\274L=\031\243u=\333A\217=\014\320#=2\274L=\031\243u=\333A\217=\177\256\243=2\274L=\031\243u=\333A\217=\177\256\243=\362\026\270=\031\243u=\333A\217=\177\256\243=\362\026\270=\256z\314=\333A\217=\177\256\243=\362\026\270=\256z\314=.\331\340=\177\256\243=\362\026\270=\256z\314=.\331\340=\3541\365=\362\026\270=\256z\314=.\331\340=\3541\365=1\302\004>\256z\314=.\331\340=\3541\365=1\302\004>\006\350\016>.\331\340=\3541\365=1\302\004>\006\350\016>3\n\031>\3541\365=1\302\004>\006\350\016>3\n\031>t(#>1\302\004>\006\350\016>3\n\031>t(#>\210B->\006\350\016>3\n\031>t(#>\210B->,X7>3\n\031>t(#>\210B->,X7>\036iA>t(#>\210B->,X7>\036iA>\035uK>\210B->,X7>\036iA>\035uK>\346{U>,X7>\036iA>\035uK>\346{U>7}_>\036iA>\035uK>\346{U>7}_>\320xi>\035uK>\346{U>7}_>\320xi>nns>\346{U>7}_>\320xi>nns>\320]}>7}_>\320xi>nns>\320]}>[\243\203>\320xi>nns>\320]}>[\243\203>o\224\210>nns>\320]}>[\243\203>o\224\210>\004\202\215>\320]}>[\243\203>o\224\210>\004\202\215>\371k\222>[\243\203>o\224\210>\004\202\215>\371k\222>.R\227>o\224\210>\004\202\215>\371k\222>.R\227>\2044\234>\004\202\215>\371k\222>.R\227>\2044\234>\332\022\241>\371k\222>.R\227>\2044\234>\332\022\241>\017\355\245>.R\227>\2044\234>\332\022\241>\017\355\245>\006\303\252>\2044\234>\332\022\241>\017\355\245>\006\303\252>\234\224\257>\332\022\241>\017\355\245>\006\303\252>\234\224\257>\264a\264>\017\355\245>\006\303\252>\234\224\257>\264a\264>.*\271>\006\303\252>\234\224\257>\264a\264>.*\271>\352\355\275>\234\224\257>\264a\264>.*\271>\352\355\275>\311\254\302>\264a\264>.*\271>\352\355\275>\311\254\302>\254f\307>.*\271>\352\355\275>\311\254\302>\254f\307>s\033\314>\352\355\275>\311\254\302>\254f\307>s\033\314>\001\313\320>\311\254\302>\254f\307>s\033\314>\001\313\320>7u\325>\254f\307>s\033\314>\001\313\320>7u\325>\365\031\332>s\033\314>\001\313\320>7u\325>\365\031\332>\035\271\336>\001\313\320>7u\325>\365\031\332>\035\271\336>\222R\343>7u\325>\365\031\332>\035\271\336>\222R\343>4\346\347>\365\031\332>\035\271\336>\222R\343>4\346\347>\347s\354>\035\271\336>\222R\343>4\346\347>\347s\354>\213\373\360>\222R\343>4\346\347>\347s\354>\213\373\360>\004}\365>4\346\347>\347s\354>\213\373\360>\004}\365>4\370\371>\347s\354>\213\373\360>\004}\365>4\370\371>\375l\376>\213\373\360>\004}\365>4\370\371>\375l\376>\241m\001?\004}\365>4\370\371>\375l\376>\241m\001?t\241\003?4\370\371>\375l\376>\241m\001?t\241\003?\347\321\005?\375l\376>\241m\001?t\241\003?\347\321\005?\356\376\007?\241m\001?t\241\003?\347\321\005?\356\376\007?y(\n?t\241\003?\347\321\005?\356\376\007?y(\n?zN\014?\347\321\005?\356\376\007?y(\n?zN\014?\344p\016?\356\376\007?y(\n?zN\014?\344p\016?\250\217\020?y(\n?zN\014?\344p\016?\250\217\020?\270\252\022?zN\014?\344p\016?\250\217\020?\270\252\022?\007\302\024?\344p\016?\250\217\020?\270\252\022?\007\302\024?\207\325\026?\250\217\020?\270\252\022?\007\302\024?\207\325\026?*\345\030?\270\252\022?\007\302\024?\207\325\026?*\345\030?\343\360\032?\007\302\024?\207\325\026?*\345\030?\343\360\032?\245\370\034?\207\325\026?*\345\030?\343\360\032?\245\370\034?a\374\036?*\345\030?\343\360\032?\245\370\034?a\374\036?\014\374 ?\343\360\032?\245\370\034?a\374\036?\014\374 ?\227\367\"?\245\370\034?a\374\036?\014\374 ?\227\367\"?\366\356$?a\374\036?\014\374 ?\227\367\"?\366\356$?\033\342&?\014\374 ?\227\367\"?\366\356$?\033\342&?\373\320(?\227\367\"?\366\356$?\033\342&?\373\320(?\211\273*?\366\356$?\033\342&?\373\320(?\211\273*?\267\241,?\033\342&?\373\320(?\211\273*?\267\241,?y\203.?\373\320(?\211\273*?\267\241,?y\203.?\304`0?\211\273*?\267\241,?y\203.?\304`0?\21392?\267\241,?y\203.?\304`0?\21392?\301\r4?y\203.?\304`0?\21392?\301\r4?[\3355?\304`0?\21392?\301\r4?[\3355?M\2507?\21392?\301\r4?[\3355?M\2507?\213n9?\301\r4?[\3355?M\2507?\213n9?\n0;?[\3355?M\2507?\213n9?\n0;?\276\354<?M\2507?\213n9?\n0;?\276\354<?\233\244>?\213n9?\n0;?\276\354<?\233\244>?\227W@?\n0;?\276\354<?\233\244>?\227W@?\246\005B?\276\354<?\233\244>?\227W@?\246\005B?\275\256C?\233\244>?\227W@?\246\005B?\275\256C?\321RE?\227W@?\246\005B?\275\256C?\321RE?\330\361F?\246\005B?\275\256C?\321RE?\330\361F?\307\213H?\275\256C?\321RE?\330\361F?\307\213H?\224 J?\321RE?\330\361F?\307\213H?\224 J?3\260K?\330\361F?\307\213H?\224 J?3\260K?\234:M?\307\213H?\224 J?3\260K?\234:M?\303\277N?\224 J?3\260K?\234:M?\303\277N?\237?P?3\260K?\234:M?\303\277N?\237?P?&\272Q?\234:M?\303\277N?\237?P?&\272Q?N/S?\303\277N?\237?P?&\272Q?N/S?\016\237T?\237?P?&\272Q?N/S?\016\237T?\\\tV?&\272Q?N/S?\016\237T?\\\tV?/nW?N/S?\016\237T?\\\tV?/nW?~\315X?\016\237T?\\\tV?/nW?~\315X?@\'Z?\\\tV?/nW?~\315X?@\'Z?l{[?/nW?~\315X?@\'Z?l{[?\371\311\\?~\315X?@\'Z?l{[?\371\311\\?\337\022^?@\'Z?l{[?\371\311\\?\337\022^?\026V_?l{[?\371\311\\?\337\022^?\026V_?\224\223`?\371\311\\?\337\022^?\026V_?\224\223`?S\313a?\337\022^?\026V_?\224\223`?S\313a?I\375b?\026V_?\224\223`?S\313a?I\375b?o)d?\224\223`?S\313a?I\375b?o)d?\276Oe?S\313a?I\375b?o)d?\276Oe?.pf?I\375b?o)d?\276Oe?.pf?\270\212g?o)d?\276Oe?.pf?\270\212g?S\237h?\276Oe?.pf?\270\212g?S\237h?\372\255i?.pf?\270\212g?S\237h?\372\255i?\245\266j?\270\212g?S\237h?\372\255i?\245\266j?M\271k?S\237h?\372\255i?\245\266j?M\271k?\355\265l?\372\255i?\245\266j?M\271k?\355\265l?}\254m?\245\266j?M\271k?\355\265l?}\254m?\367\234n?M\271k?\355\265l?}\254m?\367\234n?T\207o?\355\265l?}\254m?\367\234n?T\207o?\220kp?}\254m?\367\234n?T\207o?\220kp?\244Iq?\367\234n?T\207o?\220kp?\244Iq?\212!r?T\207o?\220kp?\244Iq?\212!r?=\363r?\220kp?\244Iq?\212!r?=\363r?\270\276s?\244Iq?\212!r?=\363r?\270\276s?\365\203t?\212!r?=\363r?\270\276s?\365\203t?\357Bu?=\363r?\270\276s?\365\203t?\357Bu?\241\373u?\270\276s?\365\203t?\357Bu?\241\373u?\007\256v?\365\203t?\357Bu?\241\373u?\007\256v?\034Zw?\357Bu?\241\373u?\007\256v?\034Zw?\334\377w?\241\373u?\007\256v?\034Zw?\334\377w?B\237x?\007\256v?\034Zw?\334\377w?B\237x?K8y?\034Zw?\334\377w?B\237x?K8y?\361\312y?\334\377w?B\237x?K8y?\361\312y?3Wz?B\237x?K8y?\361\312y?3Wz?\014\335z?K8y?\361\312y?3Wz?\014\335z?x\\{?\361\312y?3Wz?\014\335z?x\\{?t\325{?3Wz?\014\335z?x\\{?t\325{?\376G|?\014\335z?x\\{?t\325{?\376G|?\022\264|?x\\{?t\325{?\376G|?\022\264|?\256\031}?t\325{?\376G|?\022\264|?\256\031}?\317x}?\376G|?\022\264|?\256\031}?\317x}?r\321}?\022\264|?\256\031}?\317x}?r\321}?\225#~?\256\031}?\317x}?r\321}?\225#~?7o~?\317x}?r\321}?\225#~?7o~?U\264~?r\321}?\225#~?7o~?U\264~?\355\362~?\225#~?7o~?U\264~?\355\362~?\376*\177?7o~?U\264~?\355\362~?\376*\177?\207\\\177?U\264~?\355\362~?\376*\177?\207\\\177?\205\207\177?\355\362~?\376*\177?\207\\\177?\205\207\177?\371\253\177?\376*\177?\207\\\177?\205\207\177?\371\253\177?\341\311\177?\207\\\177?\205\207\177?\371\253\177?\341\311\177?<\341\177?\205\207\177?\371\253\177?\341\311\177?<\341\177?\n\362\177?\371\253\177?\341\311\177?<\341\177?\n\362\177?J\374\177?\341\311\177?<\341\177?\n\362\177?J\374\177?\375\377\177?<\341\177?\n\362\177?J\374\177?\375\377\177?!\375\177?\n\362\177?J\374\177?\375\377\177?!\375\177?\267\363\177?J\374\177?\375\377\177?!\375\177?\267\363\177?\300\343\177?\375\377\177?!\375\177?\267\363\177?\300\343\177?;\315\177?!\375\177?\267\363\177?\300\343\177?;\315\177?)\260\177?\267\363\177?\300\343\177?;\315\177?)\260\177?\214\214\177?\300\343\177?;\315\177?)\260\177?\214\214\177?cb\177?;\315\177?)\260\177?\214\214\177?cb\177?\2611\177?)\260\177?\214\214\177?cb\177?\2611\177?u\372~?\214\214\177?cb\177?\2611\177?u\372~?\263\274~?cb\177?\2611\177?u\372~?\263\274~?jx~?\2611\177?u\372~?\263\274~?jx~?\236-~?u\372~?\263\274~?jx~?\236-~?O\334}?\263\274~?jx~?\236-~?O\334}?\200\204}?jx~?\236-~?O\334}?\200\204}?4&}?\236-~?O\334}?\200\204}?4&}?l\301|?O\334}?\200\204}?4&}?l\301|?,V|?\200\204}?4&}?l\301|?,V|?u\344{?4&}?l\301|?,V|?u\344{?Kl{?l\301|?,V|?u\344{?Kl{?\262\355z?,V|?u\344{?Kl{?\262\355z?\253hz?u\344{?Kl{?\262\355z?\253hz?;\335y?Kl{?\262\355z?\253hz?;\335y?fKy?\262\355z?\253hz?;\335y?fKy?.\263x?\253hz?;\335y?fKy?.\263x?\230\024x?;\335y?fKy?.\263x?\230\024x?\250ow?fKy?.\263x?\230\024x?\250ow?b\304v?.\263x?\230\024x?\250ow?b\304v?\312\022v?\230\024x?\250ow?b\304v?\312\022v?\345Zu?\250ow?b\304v?\312\022v?\345Zu?\271\234t?b\304v?\312\022v?\345Zu?\271\234t?H\330s?\312\022v?\345Zu?\271\234t?H\330s?\232\rs?\345Zu?\271\234t?H\330s?\232\rs?\262<r?\271\234t?H\330s?\232\rs?\262<r?\226eq?H\330s?\232\rs?\262<r?\226eq?M\210p?\232\rs?\262<r?\226eq?M\210p?\332\244o?\262<r?\226eq?M\210p?\332\244o?E\273n?\226eq?M\210p?\332\244o?E\273n?\222\313m?M\210p?\332\244o?E\273n?\222\313m?\311\325l?\332\244o?E\273n?\222\313m?\311\325l?\360\331k?E\273n?\222\313m?\311\325l?\360\331k?\r\330j?\222\313m?\311\325l?\360\331k?\r\330j?&\320i?\311\325l?\360\331k?\r\330j?&\320i?C\302h?\360\331k?\r\330j?&\320i?C\302h?i\256g?\r\330j?&\320i?C\302h?i\256g?\242\224f?&\320i?C\302h?i\256g?\242\224f?\363te?C\302h?i\256g?\242\224f?\363te?dOd?i\256g?\242\224f?\363te?dOd?\374#c?\242\224f?\363te?dOd?\374#c?\303\362a?\363te?dOd?\374#c?\303\362a?\302\273`?dOd?\374#c?\303\362a?\302\273`?\377~_?\374#c?\303\362a?\302\273`?\377~_?\203<^?\303\362a?\302\273`?\377~_?\203<^?W\364\\?\302\273`?\377~_?\203<^?W\364\\?\202\246[?\377~_?\203<^?W\364\\?\202\246[?\016SZ?\203<^?W\364\\?\202\246[?\016SZ?\002\372X?W\364\\?\202\246[?\016SZ?\002\372X?h\233W?\202\246[?\016SZ?\002\372X?h\233W?I7V?\016SZ?\002\372X?h\233W?I7V?\256\315T?\002\372X?h\233W?I7V?\256\315T?\237^S?h\233W?I7V?\256\315T?\237^S?(\352Q?I7V?\256\315T?\237^S?(\352Q?PpP?\256\315T?\237^S?(\352Q?PpP?\"\361N?\237^S?(\352Q?PpP?\"\361N?\250lM?(\352Q?PpP?\"\361N?\250lM?\353\342K?PpP?\"\361N?\250lM?\353\342K?\365SJ?\"\361N?\250lM?\353\342K?\365SJ?\322\277H?\250lM?\353\342K?\365SJ?\322\277H?\212&G?\353\342K?\365SJ?\322\277H?\212&G?)\210E?\365SJ?\322\277H?\212&G?)\210E?\272\344C?\322\277H?\212&G?)\210E?\272\344C?F<B?\212&G?)\210E?\272\344C?F<B?\331\216@?)\210E?\272\344C?F<B?\331\216@?~\334>?\272\344C?F<B?\331\216@?~\334>?@%=?F<B?\331\216@?~\334>?@%=?*i;?\331\216@?~\334>?@%=?*i;?G\2509?~\334>?@%=?*i;?G\2509?\244\3427?@%=?*i;?G\2509?\244\3427?K\0306?*i;?G\2509?\244\3427?K\0306?II4?G\2509?\244\3427?K\0306?II4?\250u2?\244\3427?K\0306?II4?\250u2?w\2350?K\0306?II4?\250u2?w\2350?\277\300.?II4?\250u2?w\2350?\277\300.?\216\337,?\250u2?w\2350?\277\300.?\216\337,?\360\371*?w\2350?\277\300.?\216\337,?\360\371*?\361\017)?\277\300.?\216\337,?\360\371*?\361\017)?\236!\'?\216\337,?\360\371*?\361\017)?\236!\'?\003/%?\360\371*?\361\017)?\236!\'?\003/%?.8#?\361\017)?\236!\'?\003/%?.8#?*=!?\236!\'?\003/%?.8#?*=!?\006>\037?\003/%?.8#?*=!?\006>\037?\316:\035?.8#?*=!?\006>\037?\316:\035?\2173\033?*=!?\006>\037?\316:\035?\2173\033?X(\031?\006>\037?\316:\035?\2173\033?X(\031?4\031\027?\316:\035?\2173\033?X(\031?4\031\027?1\006\025?\2173\033?X(\031?4\031\027?1\006\025?^\357\022?X(\031?4\031\027?1\006\025?^\357\022?\310\324\020?4\031\027?1\006\025?^\357\022?\310\324\020?|\266\016?1\006\025?^\357\022?\310\324\020?|\266\016?\211\224\014?^\357\022?\310\324\020?|\266\016?\211\224\014?\375n\n?\310\324\020?|\266\016?\211\224\014?\375n\n?\345E\010?|\266\016?\211\224\014?\375n\n?\345E\010?P\031\006?\211\224\014?\375n\n?\345E\010?P\031\006?K\351\003?\375n\n?\345E\010?P\031\006?K\351\003?\347\265\001?\345E\010?P\031\006?K\351\003?\347\265\001?_\376\376>P\031\006?K\351\003?\347\265\001?_\376\376>i\212\372>K\351\003?\347\265\001?_\376\376>i\212\372>\t\020\366>\347\265\001?_\376\376>i\212\372>\t\020\366>\\\217\361>_\376\376>i\212\372>\t\020\366>\\\217\361>\200\010\355>i\212\372>\t\020\366>\\\217\361>\200\010\355>\222{\350>\t\020\366>\\\217\361>\200\010\355>\222{\350>\260\350\343>\\\217\361>\200\010\355>\222{\350>\260\350\343>\371O\337>\200\010\355>\222{\350>\260\350\343>\371O\337>\211\261\332>\222{\350>\260\350\343>\371O\337>\211\261\332>\200\r\326>\260\350\343>\371O\337>\211\261\332>\200\r\326>\374c\321>\371O\337>\211\261\332>\200\r\326>\374c\321>\033\265\314>\211\261\332>\200\r\326>\374c\321>\033\265\314>\375\000\310>\200\r\326>\374c\321>\033\265\314>\375\000\310>\277G\303>\374c\321>\033\265\314>\375\000\310>\277G\303>\202\211\276>\033\265\314>\375\000\310>\277G\303>\202\211\276>d\306\271>\375\000\310>\277G\303>\202\211\276>d\306\271>\203\376\264>\277G\303>\202\211\276>d\306\271>\203\376\264>\0012\260>\202\211\276>d\306\271>\203\376\264>\0012\260>\373`\253>d\306\271>\203\376\264>\0012\260>\373`\253>\223\213\246>\203\376\264>\0012\260>\373`\253>\223\213\246>\346\261\241>\0012\260>\373`\253>\223\213\246>\346\261\241>\026\324\234>\373`\253>\223\213\246>\346\261\241>\026\324\234>A\362\227>\223\213\246>\346\261\241>\026\324\234>A\362\227>\211\014\223>\346\261\241>\026\324\234>A\362\227>\211\014\223>\r#\216>\026\324\234>A\362\227>\211\014\223>\r#\216>\3555\211>A\362\227>\211\014\223>\r#\216>\3555\211>IE\204>\211\014\223>\r#\216>\3555\211>IE\204>\206\242~>\r#\216>\3555\211>IE\204>\206\242~>\364\263t>\3555\211>IE\204>\206\242~>\364\263t>\036\277j>IE\204>\206\242~>\364\263t>\036\277j>E\304`>\206\242~>\364\263t>\036\277j>E\304`>\253\303V>\364\263t>\036\277j>E\304`>\253\303V>\222\275L>\036\277j>E\304`>\253\303V>\222\275L>:\262B>E\304`>\253\303V>\222\275L>:\262B>\346\2418>\253\303V>\222\275L>:\262B>\346\2418>\330\214.>\222\275L>:\262B>\346\2418>\330\214.>Rs$>:\262B>\346\2418>\330\214.>Rs$>\226U\032>\346\2418>\330\214.>Rs$>\226U\032>\3463\020>\330\214.>Rs$>\226U\032>\3463\020>\205\016\006>Rs$>\226U\032>\3463\020>\205\016\006>j\313\367=\226U\032>\3463\020>\205\016\006>j\313\367=rs\343=\3463\020>\205\016\006>j\313\367=rs\343=\247\025\317=\205\016\006>j\313\367=rs\343=\247\025\317=\217\262\272=j\313\367=rs\343=\247\025\317=\217\262\272=\257J\246=rs\343=\247\025\317=\217\262\272=\257J\246=\215\336\221=\247\025\317=\217\262\272=\257J\246=\215\336\221=^\335z=\217\262\272=\257J\246=\215\336\221=^\335z=5\367Q=\257J\246=\215\336\221=^\335z=5\367Q=\254\013)=\215\336\221=^\335z=5\367Q=\254\013)=\317\033\000=^\335z=5\367Q=\254\013)=\317\033\000=UQ\256<5\367Q=\254\013)=\317\033\000=UQ\256<)\3158<\254\013)=\317\033\000=UQ\256<)\3158<n\227\247:\317\033\000=UQ\256<)\3158<n\227\247:\327\347\016\274UQ\256<)\3158<n\227\247:\327\347\016\274z_\231\274)\3158<n\227\247:\327\347\016\274z_\231\274\033G\353\274n\227\247:\327\347\016\274z_\231\274\033G\353\274[\224\036\275\327\347\016\274z_\231\274\033G\353\274[\224\036\275\030\201G\275z_\231\274\033G\353\274[\224\036\275\030\201G\275\272hp\275\033G\353\274[\224\036\275\030\201G\275\272hp\275\032\245\214\275[\224\036\275\030\201G\275\272hp\275\032\245\214\275>\022\241\275\030\201G\275\272hp\275\032\245\214\275>\022\241\275A{\265\275\272hp\275\032\245\214\275>\022\241\275A{\265\275\237\337\311\275\032\245\214\275>\022\241\275A{\265\275\237\337\311\275\321>\336\275>\022\241\275A{\265\275\237\337\311\275\321>\336\275S\230\362\275A{\265\275\237\337\311\275\321>\336\275S\230\362\275\317u\003\276\237\337\311\275\321>\336\275S\230\362\275\317u\003\276\030\234\r\276\321>\336\275S\230\362\275\317u\003\276\030\234\r\276\277\276\027\276S\230\362\275\317u\003\276\030\234\r\276\277\276\027\276\205\335!\276\317u\003\276\030\234\r\276\277\276\027\276\205\335!\276%\370+\276\030\234\r\276\277\276\027\276\205\335!\276%\370+\276^\0166\276\277\276\027\276\205\335!\276%\370+\276^\0166\276\355\037@\276\205\335!\276%\370+\276^\0166\276\355\037@\276\222,J\276%\370+\276^\0166\276\355\037@\276\222,J\276\t4T\276^\0166\276\355\037@\276\222,J\276\t4T\276\0216^\276\355\037@\276\222,J\276\t4T\276\0216^\276h2h\276\222,J\276\t4T\276\0216^\276h2h\276\316(r\276\t4T\276\0216^\276h2h\276\316(r\276\000\031|\276\0216^\276h2h\276\316(r\276\000\031|\276_\001\203\276h2h\276\316(r\276\000\031|\276_\001\203\276\343\362\207\276\316(r\276\000\031|\276_\001\203\276\343\362\207\276\354\340\214\276\000\031|\276_\001\203\276\343\362\207\276\354\340\214\276Z\313\221\276_\001\203\276\343\362\207\276\354\340\214\276Z\313\221\276\014\262\226\276\343\362\207\276\354\340\214\276Z\313\221\276\014\262\226\276\342\224\233\276\354\340\214\276Z\313\221\276\014\262\226\276\342\224\233\276\274s\240\276Z\313\221\276\014\262\226\276\342\224\233\276\274s\240\276{N\245\276\014\262\226\276\342\224\233\276\274s\240\276{N\245\276\376$\252\276\342\224\233\276\274s\240\276{N\245\276\376$\252\276%\367\256\276\274s\240\276{N\245\276\376$\252\276%\367\256\276\322\304\263\276{N\245\276\376$\252\276%\367\256\276\322\304\263\276\345\215\270\276\376$\252\276%\367\256\276\322\304\263\276\345\215\270\276=R\275\276%\367\256\276\322\304\263\276\345\215\270\276=R\275\276\275\021\302\276\322\304\263\276\345\215\270\276=R\275\276\275\021\302\276E\314\306\276\345\215\270\276=R\275\276\275\021\302\276E\314\306\276\266\201\313\276=R\275\276\275\021\302\276E\314\306\276\266\201\313\276\3601\320\276\275\021\302\276E\314\306\276\266\201\313\276\3601\320\276\326\334\324\276E\314\306\276\266\201\313\276\3601\320\276\326\334\324\276I\202\331\276\266\201\313\276\3601\320\276\326\334\324\276I\202\331\276*\"\336\276\3601\320\276\326\334\324\276I\202\331\276*\"\336\276[\274\342\276\326\334\324\276I\202\331\276*\"\336\276[\274\342\276\275P\347\276I\202\331\276*\"\336\276[\274\342\276\275P\347\2764\337\353\276*\"\336\276[\274\342\276\275P\347\2764\337\353\276\240g\360\276[\274\342\276\275P\347\2764\337\353\276\240g\360\276\345\351\364\276\275P\347\2764\337\353\276\240g\360\276\345\351\364\276\344e\371\2764\337\353\276\240g\360\276\345\351\364\276\344e\371\276\200\333\375\276\240g\360\276\345\351\364\276\344e\371\276\200\333\375\276N%\001\277\345\351\364\276\344e\371\276\200\333\375\276N%\001\277\216Y\003\277\344e\371\276\200\333\375\276N%\001\277\216Y\003\277q\212\005\277\200\333\375\276N%\001\277\216Y\003\277q\212\005\277\350\267\007\277N%\001\277\216Y\003\277q\212\005\277\350\267\007\277\346\341\t\277\216Y\003\277q\212\005\277\350\267\007\277\346\341\t\277\\\010\014\277q\212\005\277\350\267\007\277\346\341\t\277\\\010\014\277<+\016\277\350\267\007\277\346\341\t\277\\\010\014\277<+\016\277xJ\020\277\346\341\t\277\\\010\014\277<+\016\277xJ\020\277\002f\022\277\\\010\014\277<+\016\277xJ\020\277\002f\022\277\315}\024\277<+\016\277xJ\020\277\002f\022\277\315}\024\277\312\221\026\277xJ\020\277\002f\022\277\315}\024\277\312\221\026\277\355\241\030\277\002f\022\277\315}\024\277\312\221\026\277\355\241\030\277&\256\032\277\315}\024\277\312\221\026\277\355\241\030\277&\256\032\277j\266\034\277\312\221\026\277\355\241\030\277&\256\032\277j\266\034\277\253\272\036\277\355\241\030\277&\256\032\277j\266\034\277\253\272\036\277\334\272 \277&\256\032\277j\266\034\277\253\272\036\277\334\272 \277\356\266\"\277j\266\034\277\253\272\036\277\334\272 \277\356\266\"\277\327\256$\277\253\272\036\277\334\272 \277\356\266\"\277\327\256$\277\207\242&\277\334\272 \277\356\266\"\277\327\256$\277\207\242&\277\364\221(\277\356\266\"\277\327\256$\277\207\242&\277\364\221(\277\017}*\277\327\256$\277\207\242&\277\364\221(\277\017}*\277\315c,\277\207\242&\277\364\221(\277\017}*\277\315c,\277!F.\277\364\221(\277\017}*\277\315c,\277!F.\277\377#0\277\017}*\277\315c,\277!F.\277\377#0\277Z\3751\277\315c,\277!F.\277\377#0\277Z\3751\277&\3223\277!F.\277\377#0\277Z\3751\277&\3223\277X\2425\277\377#0\277Z\3751\277&\3223\277X\2425\277\343m7\277Z\3751\277&\3223\277X\2425\277\343m7\277\27449\277&\3223\277X\2425\277\343m7\277\27449\277\327\366:\277X\2425\277\343m7\277\27449\277\327\366:\277(\264<\277\343m7\277\27449\277\327\366:\277(\264<\277\244l>\277\27449\277\327\366:\277(\264<\277\244l>\277@ @\277\327\366:\277(\264<\277\244l>\277@ @\277\361\316A\277(\264<\277\244l>\277@ @\277\361\316A\277\253xC\277\244l>\277@ @\277\361\316A\277\253xC\277d\035E\277@ @\277\361\316A\277\253xC\277d\035E\277\021\275F\277\361\316A\277\253xC\277d\035E\277\021\275F\277\250WH\277\253xC\277d\035E\277\021\275F\277\250WH\277\035\355I\277d\035E\277\021\275F\277\250WH\277\035\355I\277f}K\277\021\275F\277\250WH\277\035\355I\277f}K\277z\010M\277\250WH\277\035\355I\277f}K\277z\010M\277M\216N\277\035\355I\277f}K\277z\010M\277M\216N\277\327\016P\277f}K\277z\010M\277M\216N\277\327\016P\277\r\212Q\277z\010M\277M\216N\277\327\016P\277\r\212Q\277\346\377R\277M\216N\277\327\016P\277\r\212Q\277\346\377R\277WpT\277\327\016P\277\r\212Q\277\346\377R\277WpT\277X\333U\277\r\212Q\277\346\377R\277WpT\277X\333U\277\337@W\277\346\377R\277WpT\277X\333U\277\337@W\277\343\240X\277WpT\277X\333U\277\337@W\277\343\240X\277[\373Y\277X\333U\277\337@W\277\343\240X\277[\373Y\277>P[\277\337@W\277\343\240X\277[\373Y\277>P[\277\204\237\\\277\343\240X\277[\373Y\277>P[\277\204\237\\\277$\351]\277[\373Y\277>P[\277\204\237\\\277$\351]\277\025-_\277>P[\277\204\237\\\277$\351]\277\025-_\277Ok`\277\204\237\\\277$\351]\277\025-_\277Ok`\277\312\243a\277$\351]\277\025-_\277Ok`\277\312\243a\277~\326b\277\025-_\277Ok`\277\312\243a\277~\326b\277c\003d\277Ok`\277\312\243a\277~\326b\277c\003d\277q*e\277\312\243a\277~\326b\277c\003d\277q*e\277\242Kf\277~\326b\277c\003d\277q*e\277\242Kf\277\355fg\277c\003d\277q*e\277\242Kf\277\355fg\277K|h\277q*e\277\242Kf\277\355fg\277K|h\277\265\213i\277\242Kf\277\355fg\277K|h\277\265\213i\277$\225j\277\355fg\277K|h\277\265\213i\277$\225j\277\222\230k\277K|h\277\265\213i\277$\225j\277\222\230k\277\367\225l\277\265\213i\277$\225j\277\222\230k\277\367\225l\277N\215m\277$\225j\277\222\230k\277\367\225l\277N\215m\277\217~n\277\222\230k\277\367\225l\277N\215m\277\217~n\277\265io\277\367\225l\277N\215m\277\217~n\277\265io\277\272Np\277N\215m\277\217~n\277\265io\277\272Np\277\227-q\277\217~n\277\265io\277\272Np\277\227-q\277H\006r\277\265io\277\272Np\277\227-q\277H\006r\277\306\330r\277\272Np\277\227-q\277H\006r\277\306\330r\277\r\245s\277\227-q\277H\006r\277\306\330r\277\r\245s\277\026kt\277H\006r\277\306\330r\277\r\245s\277\026kt\277\336*u\277\306\330r\277\r\245s\277\026kt\277\336*u\277^\344u\277\r\245s\277\026kt\277\336*u\277^\344u\277\222\227v\277\026kt\277\336*u\277^\344u\277\222\227v\277vDw\277\336*u\277^\344u\277\222\227v\277vDw\277\006\353w\277^\344u\277\222\227v\277vDw\277\006\353w\277<\213x\277\222\227v\277vDw\277\006\353w\277<\213x\277\025%y\277vDw\277\006\353w\277<\213x\277\025%y\277\215\270y\277\006\353w\277<\213x\277\025%y\277\215\270y\277\240Ez\277<\213x\277\025%y\277\215\270y\277\240Ez\277J\314z\277\025%y\277\215\270y\277\240Ez\277J\314z\277\211L{\277\215\270y\277\240Ez\277J\314z\277\211L{\277X\306{\277\240Ez\277J\314z\277\211L{\277X\306{\277\2659|\277J\314z\277\211L{\277X\306{\277\2659|\277\235\246|\277\211L{\277X\306{\277\2659|\277\235\246|\277\r\r}\277X\306{\277\2659|\277\235\246|\277\r\r}\277\002m}\277\2659|\277\235\246|\277\r\r}\277\002m}\277y\306}\277\235\246|\277\r\r}\277\002m}\277y\306}\277r\031~\277\r\r}\277\002m}\277y\306}\277r\031~\277\350e~\277\002m}\277y\306}\277r\031~\277\350e~\277\334\253~\277y\306}\277r\031~\277\350e~\277\334\253~\277I\353~\277r\031~\277\350e~\277\334\253~\277I\353~\2770$\177\277\350e~\277\334\253~\277I\353~\2770$\177\277\217V\177\277\334\253~\277I\353~\2770$\177\277\217V\177\277d\202\177\277I\353~\2770$\177\277\217V\177\277d\202\177\277\255\247\177\2770$\177\277\217V\177\277d\202\177\277\255\247\177\277l\306\177\277\217V\177\277d\202\177\277\255\247\177\277l\306\177\277\235\336\177\277d\202\177\277\255\247\177\277l\306\177\277\235\336\177\277B\360\177\277\255\247\177\277l\306\177\277\235\336\177\277B\360\177\277X\373\177\277l\306\177\277\235\336\177\277B\360\177\277X\373\177\277\341\377\177\277\235\336\177\277B\360\177\277X\373\177\277\341\377\177\277\334\375\177\277B\360\177\277X\373\177\277\341\377\177\277\334\375\177\277I\365\177\277X\373\177\277\341\377\177\277\334\375\177\277I\365\177\277(\346\177\277\341\377\177\277\334\375\177\277I\365\177\277(\346\177\277y\320\177\277\334\375\177\277I\365\177\277(\346\177\277y\320\177\277>\264\177\277I\365\177\277(\346\177\277y\320\177\277>\264\177\277w\221\177\277(\346\177\277y\320\177\277>\264\177\277w\221\177\277$h\177\277y\320\177\277>\264\177\277w\221\177\277$h\177\277H8\177\277>\264\177\277w\221\177\277$h\177\277H8\177\277\342\001\177\277w\221\177\277$h\177\277H8\177\277\342\001\177\277\365\304~\277$h\177\277H8\177\277\342\001\177\277\365\304~\277\202\201~\277H8\177\277\342\001\177\277\365\304~\277\202\201~\277\2137~\277\342\001\177\277\365\304~\277\202\201~\277\2137~\277\021\347}\277\365\304~\277\202\201~\277\2137~\277\021\347}\277\027\220}\277\202\201~\277\2137~\277\021\347}\277\027\220}\277\2372}\277\2137~\277\021\347}\277\027\220}\277\2372}\277\253\316|\277\021\347}\277\027\220}\277\2372}\277\253\316|\277>d|\277\027\220}\277\2372}\277\253\316|\277>d|\277[\363{\277\2372}\277\253\316|\277>d|\277[\363{\277\004|{\277\253\316|\277>d|\277[\363{\277\004|{\277=\376z\277>d|\277[\363{\277\004|{\277=\376z\277\tzz\277[\363{\277\004|{\277=\376z\277\tzz\277j\357y\277\004|{\277=\376z\277\tzz\277j\357y\277f^y\277=\376z\277\tzz\277j\357y\277f^y\277\377\306x\277\tzz\277j\357y\277f^y\277\377\306x\2779)x\277j\357y\277f^y\277\377\306x\2779)x\277\030\205w\277f^y\277\377\306x\2779)x\277\030\205w\277\242\332v\277\377\306x\2779)x\277\030\205w\277\242\332v\277\330)v\2779)x\277\030\205w\277\242\332v\277\330)v\277\302ru\277\030\205w\277\242\332v\277\330)v\277\302ru\277b\265t\277\242\332v\277\330)v\277\302ru\277b\265t\277\277\361s\277\330)v\277\302ru\277b\265t\277\277\361s\277\334\'s\277\302ru\277b\265t\277\277\361s\277\334\'s\277\300Wr\277b\265t\277\277\361s\277\334\'s\277\300Wr\277o\201q\277\277\361s\277\334\'s\277\300Wr\277o\201q\277\357\244p\277\334\'s\277\300Wr\277o\201q\277\357\244p\277F\302o\277\300Wr\277o\201q\277\357\244p\277F\302o\277y\331n\277o\201q\277\357\244p\277F\302o\277y\331n\277\216\352m\277\357\244p\277F\302o\277y\331n\277\216\352m\277\214\365l\277F\302o\277y\331n\277\216\352m\277\214\365l\277y\372k\277y\331n\277\216\352m\277\214\365l\277y\372k\277[\371j\277\216\352m\277\214\365l\277y\372k\277[\371j\2779\362i\277\214\365l\277y\372k\277[\371j\2779\362i\277\031\345h\277y\372k\277[\371j\2779\362i\277\031\345h\277\003\322g\277[\371j\2779\362i\277\031\345h\277\003\322g\277\375\270f\2779\362i\277\031\345h\277\003\322g\277\375\270f\277\016\232e\277\031\345h\277\003\322g\277\375\270f\277\016\232e\277?ud\277\003\322g\277\375\270f\277\016\232e\277?ud\277\226Jc\277\375\270f\277\016\232e\277?ud\277\226Jc\277\034\032b\277\016\232e\277?ud\277\226Jc\277\034\032b\277\327\343`\277?ud\277\226Jc\277\034\032b\277\327\343`\277\320\247_\277\226Jc\277\034\032b\277\327\343`\277\320\247_\277\017f^\277\034\032b\277\327\343`\277\320\247_\277\017f^\277\235\036]\277\327\343`\277\320\247_\277\017f^\277\235\036]\277\201\321[\277\320\247_\277\017f^\277\235\036]\277\201\321[\277\304~Z\277\017f^\277\235\036]\277\201\321[\277\304~Z\277o&Y\277\235\036]\277\201\321[\277\304~Z\277o&Y\277\212\310W\277\201\321[\277\304~Z\277o&Y\277\212\310W\277\037eV\277\304~Z\277o&Y\277\212\310W\277\037eV\2777\374T\277o&Y\277\212\310W\277\037eV\2777\374T\277\332\215S\277\212\310W\277\037eV\2777\374T\277\332\215S\277\023\032R\277\037eV\2777\374T\277\332\215S\277\023\032R\277\353\240P\2777\374T\277\332\215S\277\023\032R\277\353\240P\277k\"O\277\332\215S\277\023\032R\277\353\240P\277k\"O\277\236\236M\277\023\032R\277\353\240P\277k\"O\277\236\236M\277\214\025L\277\353\240P\277k\"O\277\236\236M\277\214\025L\277A\207J\277k\"O\277\236\236M\277\214\025L\277A\207J\277\307\363H\277\236\236M\277\214\025L\277A\207J\277\307\363H\277\'[G\277\214\025L\277A\207J\277\307\363H\277\'[G\277l\275E\277A\207J\277\307\363H\277\'[G\277l\275E\277\241\032D\277\307\363H\277\'[G\277l\275E\277\241\032D\277\321rB\277\'[G\277l\275E\277\241\032D\277\321rB\277\006\306@\277l\275E\277\241\032D\277\321rB\277\006\306@\277L\024?\277\241\032D\277\321rB\277\006\306@\277L\024?\277\255]=\277\321rB\277\006\306@\277L\024?\277\255]=\2775\242;\277\006\306@\277L\024?\277\255]=\2775\242;\277\357\3419\277L\024?\277\255]=\2775\242;\277\357\3419\277\347\0348\277\255]=\2775\242;\277\357\3419\277\347\0348\277\'S6\2775\242;\277\357\3419\277\347\0348\277\'S6\277\275\2044\277\357\3419\277\347\0348\277\'S6\277\275\2044\277\263\2612\277\347\0348\277\'S6\277\275\2044\277\263\2612\277\026\3320\277\'S6\277\275\2044\277\263\2612\277\026\3320\277\362\375.\277\275\2044\277\263\2612\277\026\3320\277\362\375.\277R\035-\277\263\2612\277\026\3320\277\362\375.\277R\035-\277D8+\277\026\3320\277\362\375.\277R\035-\277D8+\277\324N)\277\362\375.\277R\035-\277D8+\277\324N)\277\016a\'\277R\035-\277D8+\277\324N)\277\016a\'\277\377n%\277D8+\277\324N)\277\016a\'\277\377n%\277\263x#\277\324N)\277\016a\'\277\377n%\277\263x#\2778~!\277\016a\'\277\377n%\277\263x#\2778~!\277\232\177\037\277\377n%\277\263x#\2778~!\277\232\177\037\277\347|\035\277\263x#\2778~!\277\232\177\037\277\347|\035\277+v\033\2778~!\277\232\177\037\277\347|\035\277+v\033\277tk\031\277\232\177\037\277\347|\035\277+v\033\277tk\031\277\320\\\027\277\347|\035\277+v\033\277tk\031\277\320\\\027\277LJ\025\277+v\033\277tk\031\277\320\\\027\277LJ\025\277\3653\023\277tk\031\277\320\\\027\277LJ\025\277\3653\023\277\331\031\021\277\320\\\027\277LJ\025\277\3653\023\277\331\031\021\277\006\374\016\277LJ\025\277\3653\023\277\331\031\021\277\006\374\016\277\212\332\014\277\3653\023\277\331\031\021\277\006\374\016\277\212\332\014\277r\265\n\277\331\031\021\277\006\374\016\277\212\332\014\277r\265\n\277\315\214\010\277\006\374\016\277\212\332\014\277r\265\n\277\315\214\010\277\252`\006\277\212\332\014\277r\265\n\277\315\214\010\277\252`\006\277\0251\004\277r\265\n\277\315\214\010\277\252`\006\277\0251\004\277\036\376\001\277\315\214\010\277\252`\006\277\0251\004\277\036\376\001\277\245\217\377\276\252`\006\277\0251\004\277\036\376\001\277\245\217\377\276\204\034\373\276\0251\004\277\036\376\001\277\245\217\377\276\204\034\373\276\364\242\366\276\036\376\001\277\245\217\377\276\204\034\373\276\364\242\366\276\024#\362\276\245\217\377\276\204\034\373\276\364\242\366\276\024#\362\276\000\235\355\276\204\034\373\276\364\242\366\276\024#\362\276\000\235\355\276\327\020\351\276\364\242\366\276\024#\362\276\000\235\355\276\327\020\351\276\267~\344\276\024#\362\276\000\235\355\276\327\020\351\276\267~\344\276\274\346\337\276\000\235\355\276\327\020\351\276\267~\344\276\274\346\337\276\006I\333\276\327\020\351\276\267~\344\276\274\346\337\276\006I\333\276\263\245\326\276\267~\344\276\274\346\337\276\006I\333\276\263\245\326\276\340\374\321\276\274\346\337\276\006I\333\276\263\245\326\276\340\374\321\276\255N\315\276\006I\333\276\263\245\326\276\340\374\321\276\255N\315\2769\233\310\276\263\245\326\276\340\374\321\276\255N\315\2769\233\310\276\241\342\303\276\340\374\321\276\255N\315\2769\233\310\276\241\342\303\276\006%\277\276\255N\315\2769\233\310\276\241\342\303\276\006%\277\276\205b\272\2769\233\310\276\241\342\303\276\006%\277\276\205b\272\276?\233\265\276\241\342\303\276\006%\277\276\205b\272\276?\233\265\276R\317\260\276\006%\277\276\205b\272\276?\233\265\276R\317\260\276\337\376\253\276\205b\272\276?\233\265\276R\317\260\276\337\376\253\276\004*\247\276?\233\265\276R\317\260\276\337\376\253\276\004*\247\276\341P\242\276R\317\260\276\337\376\253\276\004*\247\276\341P\242\276\226s\235\276\337\376\253\276\004*\247\276\341P\242\276\226s\235\276D\222\230\276\004*\247\276\341P\242\276\226s\235\276D\222\230\276\t\255\223\276\341P\242\276\226s\235\276D\222\230\276\t\255\223\276\006\304\216\276\226s\235\276D\222\230\276\t\255\223\276\006\304\216\276[\327\211\276D\222\230\276\t\255\223\276\006\304\216\276[\327\211\276)\347\204\276\t\255\223\276\006\304\216\276[\327\211\276)\347\204\276 \347\177\276\006\304\216\276[\327\211\276)\347\204\276 \347\177\276_\371u\276[\327\211\276)\347\204\276 \347\177\276_\371u\276S\005l\276)\347\204\276 \347\177\276_\371u\276S\005l\276<\013b\276 \347\177\276_\371u\276S\005l\276<\013b\276Z\013X\276_\371u\276S\005l\276<\013b\276Z\013X\276\361\005N\276S\005l\276<\013b\276Z\013X\276\361\005N\276A\373C\276<\013b\276Z\013X\276\361\005N\276A\373C\276\215\3539\276Z\013X\276\361\005N\276A\373C\276\215\3539\276\026\327/\276\361\005N\276A\373C\276\215\3539\276\026\327/\276\036\276%\276A\373C\276\215\3539\276\026\327/\276\036\276%\276\350\240\033\276\215\3539\276\026\327/\276\036\276%\276\350\240\033\276\266\177\021\276\026\327/\276\036\276%\276\350\240\033\276\266\177\021\276\312Z\007\276\036\276%\276\350\240\033\276\266\177\021\276\312Z\007\276\316d\372\275\350\240\033\276\266\177\021\276\312Z\007\276\316d\372\275\236\r\346\275\266\177\021\276\312Z\007\276\316d\372\275\236\r\346\275\212\260\321\275\312Z\007\276\316d\372\275\236\r\346\275\212\260\321\275\030N\275\275\316d\372\275\236\r\346\275\212\260\321\275\030N\275\275\315\346\250\275\236\r\346\275\212\260\321\275\030N\275\275\315\346\250\275/{\224\275\212\260\321\275\030N\275\275\315\346\250\275/{\224\275\304\013\200\275\030N\275\275\315\346\250\275/{\224\275\304\013\200\275\"2W\275\315\346\250\275/{\224\275\304\013\200\275\"2W\275:G.\275/{\224\275\304\013\200\275\"2W\275:G.\275\334W\005\275\304\013\200\275\"2W\275:G.\275\334W\005\275\'\312\270\274\"2W\275:G.\275\334W\005\275\'\312\270\274\266\277M\274:G.\275\334W\005\275\'\312\270\274\266\277M\274e\227\'\273\334W\005\275\'\312\270\274\266\277M\274e\227\'\273,\352\363;\'\312\270\274\266\277M\274e\227\'\273,\352\363;s\346\216<\266\277M\274e\227\'\273,\352\363;s\346\216<\262\316\340<e\227\'\273,\352\363;s\346\216<\262\316\340<\230X\031=,\352\363;s\346\216<\262\316\340<\230X\031=\352EB=s\346\216<\262\316\340<\230X\031=\352EB=B.k=\262\316\340<\230X\031=\352EB=B.k=J\010\212=\230X\031=\352EB=B.k=J\010\212=\353u\236=\352EB=B.k=J\010\212=\353u\236=}\337\262=B.k=J\010\212=\353u\236=}\337\262=zD\307=J\010\212=\353u\236=}\337\262=zD\307=]\244\333=\353u\236=}\337\262=zD\307=]\244\333=\241\376\357=}\337\262=zD\307=]\244\333=\241\376\357=`)\002>zD\307=]\244\333=\241\376\357=`)\002>\032P\014>]\244\333=\241\376\357=`)\002>\032P\014><s\026>\241\376\357=`)\002>\032P\014><s\026>\204\222 >`)\002>\032P\014><s\026>\204\222 >\257\255*>\032P\014><s\026>\204\222 >\257\255*>|\3044><s\026>\204\222 >\257\255*>|\3044>\250\326>>\204\222 >\257\255*>|\3044>\250\326>>\361\343H>\257\255*>|\3044>\250\326>>\361\343H>\025\354R>|\3044>\250\326>>\361\343H>\025\354R>\323\356\\>\250\326>>\361\343H>\025\354R>\323\356\\>\350\353f>\361\343H>\025\354R>\323\356\\>\350\353f>\024\343p>\025\354R>\323\356\\>\350\353f>\024\343p>\025\324z>\323\356\\>\350\353f>\024\343p>\025\324z>U_\202>\350\353f>\024\343p>\025\324z>U_\202>HQ\207>\024\343p>\025\324z>U_\202>HQ\207>\305?\214>\025\324z>U_\202>HQ\207>\305?\214>\253*\221>U_\202>HQ\207>\305?\214>\253*\221>\330\021\226>HQ\207>\305?\214>\253*\221>\330\021\226>/\365\232>\305?\214>\253*\221>\330\021\226>/\365\232>\215\324\237>\253*\221>\330\021\226>/\365\232>\215\324\237>\324\257\244>\330\021\226>/\365\232>\215\324\237>\324\257\244>\343\206\251>/\365\232>\215\324\237>\324\257\244>\343\206\251>\233Y\256>\215\324\237>\324\257\244>\343\206\251>\233Y\256>\335\'\263>\324\257\244>\343\206\251>\233Y\256>\335\'\263>\207\361\267>\343\206\251>\233Y\256>\335\'\263>\207\361\267>}\266\274>\233Y\256>\335\'\263>\207\361\267>}\266\274>\235v\301>\335\'\263>\207\361\267>}\266\274>\235v\301>\3111\306>\207\361\267>}\266\274>\235v\301>\3111\306>\342\347\312>}\266\274>\235v\301>\3111\306>\342\347\312>\311\230\317>\235v\301>\3111\306>\342\347\312>\311\230\317>_D\324>\3111\306>\342\347\312>\311\230\317>_D\324>\206\352\330>\342\347\312>\311\230\317>_D\324>\206\352\330>\037\213\335>\311\230\317>_D\324>\206\352\330>\037\213\335>\013&\342>_D\324>\206\352\330>\037\213\335>\013&\342>.\273\346>\206\352\330>\037\213\335>\013&\342>.\273\346>hJ\353>\037\213\335>\013&\342>.\273\346>hJ\353>\233\323\357>\013&\342>.\273\346>hJ\353>\233\323\357>\253V\364>.\273\346>hJ\353>\233\323\357>\253V\364>y\323\370>hJ\353>\233\323\357>\253V\364>y\323\370>\350I\375>\233\323\357>\253V\364>y\323\370>\350I\375>\355\334\000?\253V\364>y\323\370>\350I\375>\355\334\000?\232\021\003?y\323\370>\350I\375>\355\334\000?\232\021\003?\354B\005?\350I\375>\355\334\000?\232\021\003?\354B\005?\324p\007?\355\334\000?\232\021\003?\354B\005?\324p\007?D\233\t?\232\021\003?\354B\005?\324p\007?D\233\t?.\302\013?\354B\005?\324p\007?D\233\t?.\302\013?\204\345\r?\324p\007?D\233\t?.\302\013?\204\345\r?8\005\020?D\233\t?.\302\013?\204\345\r?8\005\020?<!\022?.\302\013?\204\345\r?8\005\020?<!\022?\2039\024?\204\345\r?8\005\020?<!\022?\2039\024?\375M\026?8\005\020?<!\022?\2039\024?\375M\026?\236^\030?<!\022?\2039\024?\375M\026?\236^\030?Yk\032?\2039\024?\375M\026?\236^\030?Yk\032?\037t\034?\375M\026?\236^\030?Yk\032?\037t\034?\344x\036?\236^\030?Yk\032?\037t\034?\344x\036?\232y ?Yk\032?\037t\034?\344x\036?\232y ?5v\"?\037t\034?\344x\036?\232y ?5v\"?\246n$?\344x\036?\232y ?5v\"?\246n$?\341b&?\232y ?5v\"?\246n$?\341b&?\332R(?5v\"?\246n$?\341b&?\332R(?\204>*?\246n$?\341b&?\332R(?\204>*?\321%,?\341b&?\332R(?\204>*?\321%,?\266\010.?\332R(?\204>*?\321%,?\266\010.?\'\347/?\204>*?\321%,?\266\010.?\'\347/?\026\3011?\321%,?\266\010.?\'\347/?\026\3011?x\2263?\266\010.?\'\347/?\026\3011?x\2263?Ag5?\'\347/?\026\3011?x\2263?Ag5?e37?\026\3011?x\2263?Ag5?e37?\330\3728?x\2263?Ag5?e37?\330\3728?\217\275:?Ag5?e37?\330\3728?\217\275:?~{<?e37?\330\3728?\217\275:?~{<?\2314>?\330\3728?\217\275:?~{<?\2314>?\325\350??\217\275:?~{<?\2314>?\325\350??\'\230A?~{<?\2314>?\325\350??\'\230A?\205BC?\2314>?\325\350??\'\230A?\205BC?\342\347D?\325\350??\'\230A?\205BC?\342\347D?5\210F?\'\230A?\205BC?\342\347D?5\210F?r#H?\205BC?\342\347D?5\210F?r#H?\220\271I?\342\347D?5\210F?r#H?\220\271I?\203JK?5\210F?r#H?\220\271I?\203JK?B\326L?r#H?\220\271I?\203JK?B\326L?\302\\N?\220\271I?\203JK?B\326L?\302\\N?\371\335O?\203JK?B\326L?\302\\N?\371\335O?\336YQ?B\326L?\302\\N?\371\335O?\336YQ?g\320R?\302\\N?\371\335O?\336YQ?g\320R?\211AT?\371\335O?\336YQ?g\320R?\211AT?=\255U?\336YQ?g\320R?\211AT?=\255U?x\023W?g\320R?\211AT?=\255U?x\023W?1tX?\211AT?=\255U?x\023W?1tX?_\317Y?=\255U?x\023W?1tX?_\317Y?\371$[?x\023W?1tX?_\317Y?\371$[?\367t\\?1tX?_\317Y?\371$[?\367t\\?P\277]?_\317Y?\371$[?\367t\\?P\277]?\374\003_?\371$[?\367t\\?P\277]?\374\003_?\361B`?\367t\\?P\277]?\374\003_?\361B`?)|a?P\277]?\374\003_?\361B`?)|a?\232\257b?\374\003_?\361B`?)|a?\232\257b?>\335c?\361B`?)|a?\232\257b?>\335c?\014\005e?)|a?\232\257b?>\335c?\014\005e?\375&f?\232\257b?>\335c?\014\005e?\375&f?\tCg?>\335c?\014\005e?\375&f?\tCg?)Yh?\014\005e?\375&f?\tCg?)Yh?Wii?\375&f?\tCg?)Yh?Wii?\212sj?\tCg?)Yh?Wii?\212sj?\275wk?)Yh?Wii?\212sj?\275wk?\350ul?Wii?\212sj?\275wk?\350ul?\005nm?\212sj?\275wk?\350ul?\005nm?\016`n?\275wk?\350ul?\005nm?\016`n?\374Ko?\350ul?\005nm?\016`n?\374Ko?\3121p?\005nm?\016`n?\374Ko?\3121p?q\021q?\016`n?\374Ko?\3121p?q\021q?\354\352q?\374Ko?\3121p?q\021q?\354\352q?6\276r?\3121p?q\021q?\354\352q?6\276r?H\213s?q\021q?\354\352q?6\276r?H\213s?\036Rt?\354\352q?6\276r?H\213s?\036Rt?\262\022u?6\276r?H\213s?\036Rt?\262\022u?\000\315u?H\213s?\036Rt?\262\022u?\000\315u?\003\201v?\036Rt?\262\022u?\000\315u?\003\201v?\266.w?\262\022u?\000\315u?\003\201v?\266.w?\025\326w?\000\315u?\003\201v?\266.w?\025\326w?\033wx?\003\201v?\266.w?\025\326w?\033wx?\305\021y?\266.w?\025\326w?\033wx?\305\021y?\r\246y?\025\326w?\033wx?\305\021y?\r\246y?\3623z?\033wx?\305\021y?\r\246y?\3623z?n\273z?\305\021y?\r\246y?\3623z?n\273z?\177<{?\r\246y?\3623z?n\273z?\177<{?\"\267{?\3623z?n\273z?\177<{?\"\267{?R+|?n\273z?\177<{?\"\267{?R+|?\r\231|?\177<{?\"\267{?R+|?\r\231|?Q\000}?\"\267{?R+|?\r\231|?Q\000}?\032a}?R+|?\r\231|?Q\000}?\032a}?f\273}?\r\231|?Q\000}?\032a}?f\273}?3\017~?Q\000}?\032a}?f\273}?3\017~?\177\\~?\032a}?f\273}?3\017~?\177\\~?G\243~?f\273}?3\017~?\177\\~?G\243~?\213\343~?3\017~?\177\\~?G\243~?\213\343~?G\035\177?\177\\~?G\243~?\213\343~?G\035\177?|P\177?G\243~?\213\343~?G\035\177?|P\177?&}\177?\213\343~?G\035\177?|P\177?&}\177?F\243\177?G\035\177?|P\177?&}\177?F\243\177?\333\302\177?|P\177?&}\177?F\243\177?\333\302\177?\343\333\177?&}\177?F\243\177?\333\302\177?\343\333\177?^\356\177?F\243\177?\333\302\177?\343\333\177?^\356\177?K\372\177?\333\302\177?\343\333\177?^\356\177?K\372\177?\252\377\177?\343\333\177?^\356\177?K\372\177?\252\377\177?|\376\177?^\356\177?K\372\177?\252\377\177?|\376\177?\277\366\177?K\372\177?\252\377\177?|\376\177?\277\366\177?t\350\177?\252\377\177?|\376\177?\277\366\177?t\350\177?\234\323\177?|\376\177?\277\366\177?t\350\177?\234\323\177?8\270\177?\277\366\177?t\350\177?\234\323\177?8\270\177?G\226\177?t\350\177?\234\323\177?8\270\177?G\226\177?\312m\177?\234\323\177?8\270\177?G\226\177?\312m\177?\304>\177?8\270\177?G\226\177?\312m\177?\304>\177?4\t\177?G\226\177?\312m\177?\304>\177?4\t\177?\034\315~?\312m\177?\304>\177?4\t\177?\034\315~?\177\212~?\304>\177?4\t\177?\034\315~?\177\212~?\\A~?4\t\177?\034\315~?\177\212~?\\A~?\270\361}?\034\315~?\177\212~?\\A~?\270\361}?\222\233}?\177\212~?\\A~?\270\361}?\222\233}?\357>}?\\A~?\270\361}?\222\233}?\357>}?\317\333|?\270\361}?\222\233}?\357>}?\317\333|?6r|?\222\233}?\357>}?\317\333|?6r|?&\002|?\357>}?\317\333|?6r|?&\002|?\242\213{?\317\333|?6r|?&\002|?\242\213{?\256\016{?6r|?&\002|?\242\213{?\256\016{?K\213z?&\002|?\242\213{?\256\016{?K\213z?\177\001z?\242\213{?\256\016{?K\213z?\177\001z?Kqy?\256\016{?K\213z?\177\001z?Kqy?\265\332x?K\213z?\177\001z?Kqy?\265\332x?\300=x?\177\001z?Kqy?\265\332x?\300=x?o\232w?Kqy?\265\332x?\300=x?o\232w?\307\360v?\265\332x?\300=x?o\232w?\307\360v?\315@v?\300=x?o\232w?\307\360v?\315@v?\204\212u?o\232w?\307\360v?\315@v?\204\212u?\362\315t?\307\360v?\315@v?\204\212u?\362\315t?\033\013t?\315@v?\204\212u?\362\315t?\033\013t?\005Bs?\204\212u?\362\315t?\033\013t?\005Bs?\264rr?\362\315t?\033\013t?\005Bs?\264rr?.\235q?\033\013t?\005Bs?\264rr?.\235q?x\301p?\005Bs?\264rr?.\235q?x\301p?\230\337o?\264rr?.\235q?x\301p?\230\337o?\224\367n?.\235q?x\301p?\230\337o?\224\367n?q\tn?x\301p?\230\337o?\224\367n?q\tn?6\025m?\230\337o?\224\367n?q\tn?6\025m?\351\032l?\224\367n?q\tn?6\025m?\351\032l?\220\032k?q\tn?6\025m?\351\032l?\220\032k?3\024j?6\025m?\351\032l?\220\032k?3\024j?\327\007i?\351\032l?\220\032k?3\024j?\327\007i?\203\365g?\220\032k?3\024j?\327\007i?\203\365g??\335f?3\024j?\327\007i?\203\365g??\335f?\022\277e?\327\007i?\203\365g??\335f?\022\277e?\002\233d?\203\365g??\335f?\022\277e?\002\233d?\031qc??\335f?\022\277e?\002\233d?\031qc?\\Ab?\022\277e?\002\233d?\031qc?\\Ab?\324\013a?\002\233d?\031qc?\\Ab?\324\013a?\211\320_?\031qc?\\Ab?\324\013a?\211\320_?\204\217^?\\Ab?\324\013a?\211\320_?\204\217^?\313H]?\324\013a?\211\320_?\204\217^?\313H]?h\374[?\211\320_?\204\217^?\313H]?h\374[?b\252Z?\204\217^?\313H]?h\374[?b\252Z?\304RY?\313H]?h\374[?b\252Z?\304RY?\225\365W?h\374[?b\252Z?\304RY?\225\365W?\336\222V?b\252Z?\304RY?\225\365W?\336\222V?\251*U?\304RY?\225\365W?\336\222V?\251*U?\377\274S?\225\365W?\336\222V?\251*U?\377\274S?\350IR?\336\222V?\251*U?\377\274S?\350IR?p\321P?\251*U?\377\274S?\350IR?p\321P?\236SO?\377\274S?\350IR?p\321P?\236SO?~\320M?\350IR?p\321P?\236SO?~\320M?\030HL?p\321P?\236SO?~\320M?\030HL?w\272J?\236SO?~\320M?\030HL?w\272J?\246\'I?~\320M?\030HL?w\272J?\246\'I?\256\217G?\030HL?w\272J?\246\'I?\256\217G?\232\362E?w\272J?\246\'I?\256\217G?\232\362E?tPD?\246\'I?\256\217G?\232\362E?tPD?H\251B?\256\217G?\232\362E?tPD?H\251B?\037\375@?\232\362E?tPD?H\251B?\037\375@?\006L??tPD?H\251B?\037\375@?\006L??\006\226=?H\251B?\037\375@?\006L??\006\226=?,\333;?\037\375@?\006L??\006\226=?,\333;?\203\033:?\006L??\006\226=?,\333;?\203\033:?\026W8?\006\226=?,\333;?\203\033:?\026W8?\360\2156?,\333;?\203\033:?\026W8?\360\2156?\036\3004?\203\033:?\026W8?\360\2156?\036\3004?\253\3552?\026W8?\360\2156?\036\3004?\253\3552?\243\0261?\360\2156?\036\3004?\253\3552?\243\0261?\022;/?\036\3004?\253\3552?\243\0261?\022;/?\005[-?\253\3552?\243\0261?\022;/?\005[-?\207v+?\243\0261?\022;/?\005[-?\207v+?\245\215)?\022;/?\005[-?\207v+?\245\215)?l\240\'?\005[-?\207v+?\245\215)?l\240\'?\351\256%?\207v+?\245\215)?l\240\'?\351\256%?\'\271#?\245\215)?l\240\'?\351\256%?\'\271#?4\277!?l\240\'?\351\256%?\'\271#?4\277!?\035\301\037?\351\256%?\'\271#?4\277!?\035\301\037?\356\276\035?\'\271#?4\277!?\035\301\037?\356\276\035?\266\270\033?4\277!?\035\301\037?\356\276\035?\266\270\033?\201\256\031?\035\301\037?\356\276\035?\266\270\033?\201\256\031?\\\240\027?\356\276\035?\266\270\033?\201\256\031?\\\240\027?V\216\025?\266\270\033?\201\256\031?\\\240\027?V\216\025?|x\023?\201\256\031?\\\240\027?V\216\025?|x\023?\332^\021?\\\240\027?V\216\025?|x\023?\332^\021?\200A\017?V\216\025?|x\023?\332^\021?\200A\017?{ \r?|x\023?\332^\021?\200A\017?{ \r?\331\373\n?\332^\021?\200A\017?{ \r?\331\373\n?\247\323\010?\200A\017?{ \r?\331\373\n?\247\323\010?\365\247\006?{ \r?\331\373\n?\247\323\010?\365\247\006?\320x\004?\331\373\n?\247\323\010?\365\247\006?\320x\004?GF\002?\247\323\010?\365\247\006?\320x\004?GF\002?h\020\000?\365\247\006?\320x\004?GF\002?h\020\000?\203\256\373>\320x\004?GF\002?h\020\000?\203\256\373>\3045\367>GF\002?h\020\000?\203\256\373>\3045\367>\261\266\362>h\020\000?\203\256\373>\3045\367>\261\266\362>g1\356>\203\256\373>\3045\367>\261\266\362>g1\356>\003\246\351>\3045\367>\261\266\362>g1\356>\003\246\351>\244\024\345>\261\266\362>g1\356>\003\246\351>\244\024\345>h}\340>g1\356>\003\246\351>\244\024\345>h}\340>l\340\333>\003\246\351>\244\024\345>h}\340>l\340\333>\316=\327>\244\024\345>h}\340>l\340\333>\316=\327>\256\225\322>h}\340>l\340\333>\316=\327>\256\225\322>*\350\315>l\340\333>\316=\327>\256\225\322>*\350\315>_5\311>\316=\327>\256\225\322>*\350\315>_5\311>n}\304>\256\225\322>*\350\315>_5\311>n}\304>u\300\277>*\350\315>_5\311>n}\304>u\300\277>\223\376\272>_5\311>n}\304>u\300\277>\223\376\272>\3477\266>n}\304>u\300\277>\223\376\272>\3477\266>\221l\261>u\300\277>\223\376\272>\3477\266>\221l\261>\260\234\254>\223\376\272>\3477\266>\221l\261>\260\234\254>c\310\247>\3477\266>\221l\261>\260\234\254>c\310\247>\313\357\242>\221l\261>\260\234\254>c\310\247>\313\357\242>\006\023\236>\260\234\254>c\310\247>\313\357\242>\006\023\236>62\231>c\310\247>\313\357\242>\006\023\236>62\231>yM\224>\313\357\242>\006\023\236>62\231>yM\224>\360d\217>\006\023\236>62\231>yM\224>\360d\217>\273x\212>62\231>yM\224>\360d\217>\273x\212>\373\210\205>yM\224>\360d\217>\273x\212>\373\210\205>\317\225\200>\360d\217>\273x\212>\373\210\205>\317\225\200>\261>w>\273x\212>\373\210\205>\317\225\200>\261>w>oKm>\373\210\205>\317\225\200>\261>w>oKm>\032Rc>\317\225\200>\261>w>oKm>\032Rc>\362RY>\261>w>oKm>\032Rc>\362RY>:NO>oKm>\032Rc>\362RY>:NO>4DE>\032Rc>\362RY>:NO>4DE> 5;>\362RY>:NO>4DE> 5;>A!1>:NO>4DE> 5;>A!1>\331\010\'>4DE> 5;>A!1>\331\010\'>*\354\034> 5;>A!1>\331\010\'>*\354\034>v\313\022>A!1>\331\010\'>*\354\034>v\313\022>\001\247\010>\331\010\'>*\354\034>v\313\022>\001\247\010>\026\376\374=*\354\034>v\313\022>\001\247\010>\026\376\374=\261\247\350=v\313\022>\001\247\010>\026\376\374=\261\247\350=WK\324=\001\247\010>\026\376\374=\261\247\350=WK\324=\215\351\277=\026\376\374=\261\247\350=WK\324=\215\351\277=\331\202\253=\261\247\350=WK\324=\215\351\277=\331\202\253=\301\027\227=WK\324=\215\351\277=\331\202\253=\301\027\227=\313\250\202=\215\351\277=\331\202\253=\301\027\227=\313\250\202=\370l\\=\331\202\253=\301\027\227=\313\250\202=\370l\\=\265\2023=\301\027\227=\313\250\202=\370l\\=\265\2023=\332\223\n=\313\250\202=\370l\\=\265\2023=\332\223\n=\345B\303<\370l\\=\265\2023=\332\223\n=\345B\303<,\262b<\265\2023=\332\223\n=\345B\303<,\262b<\001c{;\332\223\n=\345B\303<,\262b<\001c{;\220\004\312\273\345B\303<,\262b<\001c{;\220\004\312\273]m\204\274,\262b<\001c{;\220\004\312\273]m\204\2742V\326\274\001c{;\220\004\312\273]m\204\2742V\326\274\305\034\024\275\220\004\312\273]m\204\2742V\326\274\305\034\024\275\246\n=\275]m\204\2742V\326\274\305\034\024\275\246\n=\275\260\363e\2752V\326\274\305\034\024\275\246\n=\275\260\363e\275kk\207\275\305\034\024\275\246\n=\275\260\363e\275kk\207\275\207\331\233\275\246\n=\275\260\363e\275kk\207\275\207\331\233\275\245C\260\275\260\363e\275kk\207\275\207\331\233\275\245C\260\275@\251\304\275kk\207\275\207\331\233\275\245C\260\275@\251\304\275\322\t\331\275\207\331\233\275\245C\260\275@\251\304\275\322\t\331\275\325d\355\275\245C\260\275@\251\304\275\322\t\331\275\325d\355\275\342\334\000\276@\251\304\275\322\t\331\275\325d\355\275\342\334\000\276\r\004\013\276\322\t\331\275\325d\355\275\342\334\000\276\r\004\013\276\250\'\025\276\325d\355\275\342\334\000\276\r\004\013\276\250\'\025\276rG\037\276\342\334\000\276\r\004\013\276\250\'\025\276rG\037\276(c)\276\r\004\013\276\250\'\025\276rG\037\276(c)\276\207z3\276\250\'\025\276rG\037\276(c)\276\207z3\276N\215=\276rG\037\276(c)\276\207z3\276N\215=\276;\233G\276(c)\276\207z3\276N\215=\276;\233G\276\013\244Q\276\207z3\276N\215=\276;\233G\276\013\244Q\276}\247[\276N\215=\276;\233G\276\013\244Q\276}\247[\276O\245e\276;\233G\276\013\244Q\276}\247[\276O\245e\276@\235o\276\013\244Q\276}\247[\276O\245e\276@\235o\276\016\217y\276}\247[\276O\245e\276@\235o\276\016\217y\276<\275\201\276O\245e\276@\235o\276\016\217y\276<\275\201\276\237\257\206\276@\235o\276\016\217y\276<\275\201\276\237\257\206\276\217\236\213\276\016\217y\276<\275\201\276\237\257\206\276\217\236\213\276\354\211\220\276<\275\201\276\237\257\206\276\217\236\213\276\354\211\220\276\225q\225\276\237\257\206\276\217\236\213\276\354\211\220\276\225q\225\276kU\232\276\217\236\213\276\354\211\220\276\225q\225\276kU\232\276M5\237\276\354\211\220\276\225q\225\276kU\232\276M5\237\276\034\021\244\276\225q\225\276kU\232\276M5\237\276\034\021\244\276\267\350\250\276kU\232\276M5\237\276\034\021\244\276\267\350\250\276\377\273\255\276M5\237\276\034\021\244\276\267\350\250\276\377\273\255\276\324\212\262\276\034\021\244\276\267\350\250\276\377\273\255\276\324\212\262\276\027U\267\276\267\350\250\276\377\273\255\276\324\212\262\276\027U\267\276\250\032\274\276\377\273\255\276\324\212\262\276\027U\267\276\250\032\274\276h\333\300\276\324\212\262\276\027U\267\276\250\032\274\276h\333\300\2768\227\305\276\027U\267\276\250\032\274\276h\333\300\2768\227\305\276\370M\312\276\250\032\274\276h\333\300\2768\227\305\276\370M\312\276\213\377\316\276h\333\300\2768\227\305\276\370M\312\276\213\377\316\276\321\253\323\2768\227\305\276\370M\312\276\213\377\316\276\321\253\323\276\253R\330\276\370M\312\276\213\377\316\276\321\253\323\276\253R\330\276\374\363\334\276\213\377\316\276\321\253\323\276\253R\330\276\374\363\334\276\244\217\341\276\321\253\323\276\253R\330\276\374\363\334\276\244\217\341\276\205%\346\276\253R\330\276\374\363\334\276\244\217\341\276\205%\346\276\202\265\352\276\374\363\334\276\244\217\341\276\205%\346\276\202\265\352\276}?\357\276\244\217\341\276\205%\346\276\202\265\352\276}?\357\276W\303\363\276\205%\346\276\202\265\352\276}?\357\276W\303\363\276\364@\370\276\202\265\352\276}?\357\276W\303\363\276\364@\370\2765\270\374\276}?\357\276W\303\363\276\364@\370\2765\270\374\276\177\224\000\277W\303\363\276\364@\370\2765\270\374\276\177\224\000\277\230\311\002\277\364@\370\2765\270\374\276\177\224\000\277\230\311\002\277X\373\004\2775\270\374\276\177\224\000\277\230\311\002\277X\373\004\277\261)\007\277\177\224\000\277\230\311\002\277X\373\004\277\261)\007\277\223T\t\277\230\311\002\277X\373\004\277\261)\007\277\223T\t\277\362{\013\277X\373\004\277\261)\007\277\223T\t\277\362{\013\277\276\237\r\277\261)\007\277\223T\t\277\362{\013\277\276\237\r\277\352\277\017\277\223T\t\277\362{\013\277\276\237\r\277\352\277\017\277g\334\021\277\362{\013\277\276\237\r\277\352\277\017\277g\334\021\277(\365\023\277\276\237\r\277\352\277\017\277g\334\021\277(\365\023\277 \n\026\277\352\277\017\277g\334\021\277(\365\023\277 \n\026\277@\033\030\277g\334\021\277(\365\023\277 \n\026\277@\033\030\277{(\032\277(\365\023\277 \n\026\277@\033\030\277{(\032\277\3041\034\277 \n\026\277@\033\030\277{(\032\277\3041\034\277\0147\036\277@\033\030\277{(\032\277\3041\034\277\0147\036\277H8 \277{(\032\277\3041\034\277\0147\036\277H8 \277i5\"\277\3041\034\277\0147\036\277H8 \277i5\"\277d.$\277\0147\036\277H8 \277i5\"\277d.$\277*#&\277H8 \277i5\"\277d.$\277*#&\277\256\023(\277i5\"\277d.$\277*#&\277\256\023(\277\346\377)\277d.$\277*#&\277\256\023(\277\346\377)\277\303\347+\277*#&\277\256\023(\277\346\377)\277\303\347+\2779\313-\277\256\023(\277\346\377)\277\303\347+\2779\313-\277<\252/\277\346\377)\277\303\347+\2779\313-\277<\252/\277\277\2041\277\303\347+\2779\313-\277<\252/\277\277\2041\277\267Z3\2779\313-\277<\252/\277\277\2041\277\267Z3\277\027,5\277<\252/\277\277\2041\277\267Z3\277\027,5\277\324\3706\277\277\2041\277\267Z3\277\027,5\277\324\3706\277\341\3008\277\267Z3\277\027,5\277\324\3706\277\341\3008\2773\204:\277\027,5\277\324\3706\277\341\3008\2773\204:\277\277B<\277\324\3706\277\341\3008\2773\204:\277\277B<\277y\374=\277\341\3008\2773\204:\277\277B<\277y\374=\277U\261?\2773\204:\277\277B<\277y\374=\277U\261?\277IaA\277\277B<\277y\374=\277U\261?\277IaA\277I\014C\277y\374=\277U\261?\277IaA\277I\014C\277K\262D\277U\261?\277IaA\277I\014C\277K\262D\277CSF\277IaA\277I\014C\277K\262D\277CSF\277(\357G\277I\014C\277K\262D\277CSF\277(\357G\277\355\205I\277K\262D\277CSF\277(\357G\277\355\205I\277\212\027K\277CSF\277(\357G\277\355\205I\277\212\027K\277\364\243L\277(\357G\277\355\205I\277\212\027K\277\364\243L\277 +N\277\355\205I\277\212\027K\277\364\243L\277 +N\277\005\255O\277\212\027K\277\364\243L\277 +N\277\005\255O\277\231)Q\277\364\243L\277 +N\277\005\255O\277\231)Q\277\321\240R\277 +N\277\005\255O\277\231)Q\277\321\240R\277\245\022T\277\005\255O\277\231)Q\277\321\240R\277\245\022T\277\013\177U\277\231)Q\277\321\240R\277\245\022T\277\013\177U\277\371\345V\277\321\240R\277\245\022T\277\013\177U\277\371\345V\277gGX\277\245\022T\277\013\177U\277\371\345V\277gGX\277K\243Y\277\013\177U\277\371\345V\277gGX\277K\243Y\277\235\371Z\277\371\345V\277gGX\277K\243Y\277\235\371Z\277SJ\\\277gGX\277K\243Y\277\235\371Z\277SJ\\\277e\225]\277K\243Y\277\235\371Z\277SJ\\\277e\225]\277\313\332^\277\235\371Z\277SJ\\\277e\225]\277\313\332^\277|\032`\277SJ\\\277e\225]\277\313\332^\277|\032`\277pTa\277e\225]\277\313\332^\277|\032`\277pTa\277\237\210b\277\313\332^\277|\032`\277pTa\277\237\210b\277\001\267c\277|\032`\277pTa\277\237\210b\277\001\267c\277\216\337d\277pTa\277\237\210b\277\001\267c\277\216\337d\277?\002f\277\237\210b\277\001\267c\277\216\337d\277?\002f\277\r\037g\277\001\267c\277\216\337d\277?\002f\277\r\037g\277\3575h\277\216\337d\277?\002f\277\r\037g\277\3575h\277\340Fi\277?\002f\277\r\037g\277\3575h\277\340Fi\277\327Qj\277\r\037g\277\3575h\277\340Fi\277\327Qj\277\317Vk\277\3575h\277\340Fi\277\327Qj\277\317Vk\277\277Ul\277\340Fi\277\327Qj\277\317Vk\277\277Ul\277\243Nm\277\327Qj\277\317Vk\277\277Ul\277\243Nm\277sAn\277\317Vk\277\277Ul\277\243Nm\277sAn\277*.o\277\277Ul\277\243Nm\277sAn\277*.o\277\300\024p\277\243Nm\277sAn\277*.o\277\300\024p\2771\365p\277sAn\277*.o\277\300\024p\2771\365p\277w\317q\277*.o\277\300\024p\2771\365p\277w\317q\277\213\243r\277\300\024p\2771\365p\277w\317q\277\213\243r\277iqs\2771\365p\277w\317q\277\213\243r\277iqs\277\0139t\277w\317q\277\213\243r\277iqs\277\0139t\277m\372t\277\213\243r\277iqs\277\0139t\277m\372t\277\210\265u\277iqs\277\0139t\277m\372t\277\210\265u\277Yjv\277\0139t\277m\372t\277\210\265u\277Yjv\277\333\030w\277m\372t\277\210\265u\277Yjv\277\333\030w\277\t\301w\277\210\265u\277Yjv\277\333\030w\277\t\301w\277\337bx\277Yjv\277\333\030w\277\t\301w\277\337bx\277Y\376x\277\333\030w\277\t\301w\277\337bx\277Y\376x\277s\223y\277\t\301w\277\337bx\277Y\376x\277s\223y\277)\"z\277\337bx\277Y\376x\277s\223y\277)\"z\277x\252z\277Y\376x\277s\223y\277)\"z\277x\252z\277[,{\277s\223y\277)\"z\277x\252z\277[,{\277\320\247{\277)\"z\277x\252z\277[,{\277\320\247{\277\323\034|\277x\252z\277[,{\277\320\247{\277\323\034|\277b\213|\277[,{\277\320\247{\277\323\034|\277b\213|\277y\363|\277\320\247{\277\323\034|\277b\213|\277y\363|\277\026U}\277\323\034|\277b\213|\277y\363|\277\026U}\2777\260}\277b\213|\277y\363|\277\026U}\2777\260}\277\331\004~\277y\363|\277\026U}\2777\260}\277\331\004~\277\372R~\277\026U}\2777\260}\277\331\004~\277\372R~\277\230\232~\2777\260}\277\331\004~\277\372R~\277\230\232~\277\260\333~\277\331\004~\277\372R~\277\230\232~\277\260\333~\277C\026\177\277\372R~\277\230\232~\277\260\333~\277C\026\177\277MJ\177\277\230\232~\277\260\333~\277C\026\177\277MJ\177\277\316w\177\277\260\333~\277C\026\177\277MJ\177\277\316w\177\277\304\236\177\277C\026\177\277MJ\177\277\316w\177\277\304\236\177\277/\277\177\277MJ\177\277\316w\177\277\304\236\177\277/\277\177\277\r\331\177\277\316w\177\277\304\236\177\277/\277\177\277\r\331\177\277^\354\177\277\304\236\177\277/\277\177\277\r\331\177\277^\354\177\277\"\371\177\277/\277\177\277\r\331\177\277^\354\177\277\"\371\177\277X\377\177\277\r\331\177\277^\354\177\277\"\371\177\277X\377\177\277\000\377\177\277^\354\177\277\"\371\177\277X\377\177\277\000\377\177\277\032\370\177\277\"\371\177\277X\377\177\277\000\377\177\277\032\370\177\277\246\352\177\277X\377\177\277\000\377\177\277\032\370\177\277\246\352\177\277\244\326\177\277\000\377\177\277\032\370\177\277\246\352\177\277\244\326\177\277\026\274\177\277\032\370\177\277\246\352\177\277\244\326\177\277\026\274\177\277\373\232\177\277\246\352\177\277\244\326\177\277\026\274\177\277\373\232\177\277Us\177\277\244\326\177\277\026\274\177\277\373\232\177\277Us\177\277$E\177\277\026\274\177\277\373\232\177\277Us\177\277$E\177\277j\020\177\277\373\232\177\277Us\177\277$E\177\277j\020\177\277(\325~\277Us\177\277$E\177\277j\020\177\277(\325~\277`\223~\277$E\177\277j\020\177\277(\325~\277`\223~\277\023K~\277j\020\177\277(\325~\277`\223~\277\023K~\277C\374}\277(\325~\277`\223~\277\023K~\277C\374}\277\363\246}\277`\223~\277\023K~\277C\374}\277\363\246}\277#K}\277\023K~\277C\374}\277\363\246}\277#K}\277\330\350|\277C\374}\277\363\246}\277#K}\277\330\350|\277\022\200|\277\363\246}\277#K}\277\330\350|\277\022\200|\277\326\020|\277#K}\277\330\350|\277\022\200|\277\326\020|\277%\233{\277\330\350|\277\022\200|\277\326\020|\277%\233{\277\003\037{\277\022\200|\277\326\020|\277%\233{\277\003\037{\277s\234z\277\326\020|\277%\233{\277\003\037{\277s\234z\277x\023z\277%\233{\277\003\037{\277s\234z\277x\023z\277\026\204y\277\003\037{\277s\234z\277x\023z\277\026\204y\277Q\356x\277s\234z\277x\023z\277\026\204y\277Q\356x\277,Rx\277x\023z\277\026\204y\277Q\356x\277,Rx\277\253\257w\277\026\204y\277Q\356x\277,Rx\277\253\257w\277\322\006w\277Q\356x\277,Rx\277\253\257w\277\322\006w\277\246Wv\277,Rx\277\253\257w\277\322\006w\277\246Wv\277,\242u\277\253\257w\277\322\006w\277\246Wv\277,\242u\277g\346t\277\322\006w\277\246Wv\277,\242u\277g\346t\277^$t\277\246Wv\277,\242u\277g\346t\277^$t\277\023\\s\277,\242u\277g\346t\277^$t\277\023\\s\277\216\215r\277g\346t\277^$t\277\023\\s\277\216\215r\277\323\270q\277^$t\277\023\\s\277\216\215r\277\323\270q\277\347\335p\277\023\\s\277\216\215r\277\323\270q\277\347\335p\277\321\374o\277\216\215r\277\323\270q\277\347\335p\277\321\374o\277\225\025o\277\323\270q\277\347\335p\277\321\374o\277\225\025o\277:(n\277\347\335p\277\321\374o\277\225\025o\277:(n\277\3064m\277\321\374o\277\225\025o\277:(n\277\3064m\277@;l\277\225\025o\277:(n\277\3064m\277@;l\277\255;k\277:(n\277\3064m\277@;l\277\255;k\277\0236j\277\3064m\277@;l\277\255;k\277\0236j\277{*i\277@;l\277\255;k\277\0236j\277{*i\277\352\030h\277\255;k\277\0236j\277{*i\277\352\030h\277h\001g\277\0236j\277{*i\277\352\030h\277h\001g\277\374\343e\277{*i\277\352\030h\277h\001g\277\374\343e\277\255\300d\277\352\030h\277h\001g\277\374\343e\277\255\300d\277\202\227c\277h\001g\277\374\343e\277\255\300d\277\202\227c\277\204hb\277\374\343e\277\255\300d\277\202\227c\277\204hb\277\2713a\277\255\300d\277\202\227c\277\204hb\277\2713a\277+\371_\277\202\227c\277\204hb\277\2713a\277+\371_\277\340\270^\277\204hb\277\2713a\277+\371_\277\340\270^\277\341r]\277\2713a\277+\371_\277\340\270^\277\341r]\2777\'\\\277+\371_\277\340\270^\277\341r]\2777\'\\\277\352\325Z\277\340\270^\277\341r]\2777\'\\\277\352\325Z\277\002\177Y\277\341r]\2777\'\\\277\352\325Z\277\002\177Y\277\211\"X\2777\'\\\277\352\325Z\277\002\177Y\277\211\"X\277\206\300V\277\352\325Z\277\002\177Y\277\211\"X\277\206\300V\277\005YU\277\002\177Y\277\211\"X\277\206\300V\277\005YU\277\014\354S\277\211\"X\277\206\300V\277\005YU\277\014\354S\277\247yR\277\206\300V\277\005YU\277\014\354S\277\247yR\277\336\001Q\277\005YU\277\014\354S\277\247yR\277\336\001Q\277\273\204O\277\014\354S\277\247yR\277\336\001Q\277\273\204O\277G\002N\277\247yR\277\336\001Q\277\273\204O\277G\002N\277\216zL\277\336\001Q\277\273\204O\277G\002N\277\216zL\277\230\355J\277\273\204O\277G\002N\277\216zL\277\230\355J\277p[I\277G\002N\277\216zL\277\230\355J\277p[I\277 \304G\277\216zL\277\230\355J\277p[I\277 \304G\277\262\'F\277\230\355J\277p[I\277 \304G\277\262\'F\2772\206D\277p[I\277 \304G\277\262\'F\2772\206D\277\251\337B\277 \304G\277\262\'F\2772\206D\277\251\337B\277#4A\277\262\'F\2772\206D\277\251\337B\277#4A\277\253\203?\2772\206D\277\251\337B\277#4A\277\253\203?\277K\316=\277\251\337B\277#4A\277\253\203?\277K\316=\277\020\024<\277#4A\277\253\203?\277K\316=\277\020\024<\277\003U:\277\253\203?\277K\316=\277\020\024<\277\003U:\2771\2218\277K\316=\277\020\024<\277\003U:\2771\2218\277\245\3106\277\020\024<\277\003U:\2771\2218\277\245\3106\277k\3734\277\003U:\2771\2218\277\245\3106\277k\3734\277\217)3\2771\2218\277\245\3106\277k\3734\277\217)3\277\034S1\277\245\3106\277k\3734\277\217)3\277\034S1\277\037x/\277k\3734\277\217)3\277\034S1\277\037x/\277\244\230-\277\217)3\277\034S1\277\037x/\277\244\230-\277\267\264+\277\034S1\277\037x/\277\244\230-\277\267\264+\277d\314)\277\037x/\277\244\230-\277\267\264+\277d\314)\277\271\337\'\277\244\230-\277\267\264+\277d\314)\277\271\337\'\277\301\356%\277\267\264+\277d\314)\277\271\337\'\277\301\356%\277\211\371#\277d\314)\277\271\337\'\277\301\356%\277\211\371#\277\037\000\"\277\271\337\'\277\301\356%\277\211\371#\277\037\000\"\277\216\002 \277\301\356%\277\211\371#\277\037\000\"\277\216\002 \277\345\000\036\277\211\371#\277\037\000\"\277\216\002 \277\345\000\036\2770\373\033\277\037\000\"\277\216\002 \277\345\000\036\2770\373\033\277}\361\031\277\216\002 \277\345\000\036\2770\373\033\277}\361\031\277\331\343\027\277\345\000\036\2770\373\033\277}\361\031\277\331\343\027\277Q\322\025\2770\373\033\277}\361\031\277\331\343\027\277Q\322\025\277\362\274\023\277}\361\031\277\331\343\027\277Q\322\025\277\362\274\023\277\314\243\021\277\331\343\027\277Q\322\025\277\362\274\023\277\314\243\021\277\353\206\017\277Q\322\025\277\362\274\023\277\314\243\021\277\353\206\017\277]f\r\277\362\274\023\277\314\243\021\277\353\206\017\277]f\r\2770B\013\277\314\243\021\277\353\206\017\277]f\r\2770B\013\277s\032\t\277\353\206\017\277]f\r\2770B\013\277s\032\t\2772\357\006\277]f\r\2770B\013\277s\032\t\2772\357\006\277}\300\004\2770B\013\277s\032\t\2772\357\006\277}\300\004\277c\216\002\277s\032\t\2772\357\006\277}\300\004\277c\216\002\277\360X\000\2772\357\006\277}\300\004\277c\216\002\277\360X\000\277h@\374\276}\300\004\277c\216\002\277\360X\000\277h@\374\276z\310\367\276c\216\002\277\360X\000\277h@\374\276z\310\367\2764J\363\276\360X\000\277h@\374\276z\310\367\2764J\363\276\264\305\356\276h@\374\276z\310\367\2764J\363\276\264\305\356\276\027;\352\276z\310\367\2764J\363\276\264\305\356\276\027;\352\276z\252\345\2764J\363\276\264\305\356\276\027;\352\276z\252\345\276\373\023\341\276\264\305\356\276\027;\352\276z\252\345\276\373\023\341\276\272w\334\276\027;\352\276z\252\345\276\373\023\341\276\272w\334\276\323\325\327\276z\252\345\276\373\023\341\276\272w\334\276\323\325\327\276e.\323\276\373\023\341\276\272w\334\276\323\325\327\276e.\323\276\220\201\316\276\272w\334\276\323\325\327\276e.\323\276\220\201\316\276p\317\311\276\323\325\327\276e.\323\276\220\201\316\276p\317\311\276&\030\305\276e.\323\276\220\201\316\276p\317\311\276&\030\305\276\320[\300\276\220\201\316\276p\317\311\276&\030\305\276\320[\300\276\215\232\273\276p\317\311\276&\030\305\276\320[\300\276\215\232\273\276|\324\266\276&\030\305\276\320[\300\276\215\232\273\276|\324\266\276\274\t\262\276\320[\300\276\215\232\273\276|\324\266\276\274\t\262\276n:\255\276\215\232\273\276|\324\266\276\274\t\262\276n:\255\276\261f\250\276|\324\266\276\274\t\262\276n:\255\276\261f\250\276\243\216\243\276\274\t\262\276n:\255\276\261f\250\276\243\216\243\276e\262\236\276n:\255\276\261f\250\276\243\216\243\276e\262\236\276\027\322\231\276\261f\250\276\243\216\243\276e\262\236\276\027\322\231\276\331\355\224\276\243\216\243\276e\262\236\276\027\322\231\276\331\355\224\276\313\005\220\276e\262\236\276\027\322\231\276\331\355\224\276\313\005\220\276\014\032\213\276\027\322\231\276\331\355\224\276\313\005\220\276\014\032\213\276\276*\206\276\331\355\224\276\313\005\220\276\014\032\213\276\276*\206\276\0018\201\276\313\005\220\276\014\032\213\276\276*\206\276\0018\201\276\350\203x\276\014\032\213\276\276*\206\276\0018\201\276\350\203x\276q\221n\276\276*\206\276\0018\201\276\350\203x\276q\221n\276\337\230d\276\0018\201\276\350\203x\276q\221n\276\337\230d\276s\232Z\276\350\203x\276q\221n\276\337\230d\276s\232Z\276m\226P\276q\221n\276\337\230d\276s\232Z\276m\226P\276\021\215F\276\337\230d\276s\232Z\276m\226P\276\021\215F\276\236~<\276s\232Z\276m\226P\276\021\215F\276\236~<\276Yk2\276m\226P\276\021\215F\276\236~<\276Yk2\276\201S(\276\021\215F\276\236~<\276Yk2\276\201S(\276[7\036\276\236~<\276Yk2\276\201S(\276[7\036\276\'\027\024\276Yk2\276\201S(\276[7\036\276\'\027\024\276)\363\t\276\201S(\276[7\036\276\'\027\024\276)\363\t\276D\227\377\275[7\036\276\'\027\024\276)\363\t\276D\227\377\275\253A\353\275\'\027\024\276)\363\t\276D\227\377\275\253A\353\275\r\346\326\275)\363\t\276D\227\377\275\253A\353\275\r\346\326\275\355\204\302\275D\227\377\275\253A\353\275\r\346\326\275\355\204\302\275\323\036\256\275\253A\353\275\r\346\326\275\355\204\302\275\323\036\256\275C\264\231\275\r\346\326\275\355\204\302\275\323\036\256\275C\264\231\275\304E\205\275\355\204\302\275\323\036\256\275C\264\231\275\304E\205\275\266\247a\275\323\036\256\275C\264\231\275\304E\205\275\266\247a\275\035\2768\275C\264\231\275\304E\205\275\266\247a\275\035\2768\275\312\317\017\275\304E\205\275\266\247a\275\035\2768\275\312\317\017\275\217\273\315\274\266\247a\275\035\2768\275\312\317\017\275\217\273\315\274\213\244w\274\035\2768\275\312\317\017\275\217\273\315\274\213\244w\274A\227\247\273\312\317\017\275\217\273\315\274\213\244w\274A\227\247\273\335\036\240;\217\273\315\274\213\244w\274A\227\247\273\335\036\240;q\350s<\213\244w\274A\227\247\273\335\036\240;q\350s<\232\335\313<A\227\247\273\335\036\240;q\350s<\232\335\313<\342\340\016=\335\036\240;q\350s<\232\335\313<\342\340\016=N\3177=q\350s<\232\335\313<\342\340\016=N\3177=\006\271`=\232\335\313<\342\340\016=N\3177=\006\271`=~\316\204=\342\340\016=N\3177=\006\271`=~\316\204=\023=\231=N\3177=\006\271`=~\316\204=\023=\231=\273\247\255=\006\271`=~\316\204=\023=\231=\273\247\255=\361\r\302=~\316\204=\023=\231=\273\247\255=\361\r\302=/o\326=\023=\231=\273\247\255=\361\r\302=/o\326=\357\312\352=\273\247\255=\361\r\302=/o\326=\357\312\352=\254 \377=\361\r\302=/o\326=\357\312\352=\254 \377=\361\267\t>/o\326=\357\312\352=\254 \377=\361\267\t>\004\334\023>\357\312\352=\254 \377=\361\267\t>\004\334\023>O\374\035>\254 \377=\361\267\t>\004\334\023>O\374\035>\216\030(>\361\267\t>\004\334\023>O\374\035>\216\030(>\17702>\004\334\023>O\374\035>\216\030(>\17702>\340C<>O\374\035>\216\030(>\17702>\340C<>oRF>\216\030(>\17702>\340C<>oRF>\352[P>\17702>\340C<>oRF>\352[P>\020`Z>\340C<>oRF>\352[P>\020`Z>\236^d>oRF>\352[P>\020`Z>\236^d>SWn>\352[P>\020`Z>\236^d>SWn>\355Ix>\020`Z>\236^d>SWn>\355Ix>\026\033\201>\236^d>SWn>\355Ix>\026\033\201>\350\r\206>SWn>\355Ix>\026\033\201>\350\r\206>J\375\212>\355Ix>\026\033\201>\350\r\206>J\375\212>\036\351\217>\026\033\201>\350\r\206>J\375\212>\036\351\217>B\321\224>\350\r\206>J\375\212>\036\351\217>B\321\224>\227\265\231>J\375\212>\036\351\217>B\321\224>\227\265\231>\374\225\236>\036\351\217>B\321\224>\227\265\231>\374\225\236>Rr\243>B\321\224>\227\265\231>\374\225\236>Rr\243>xJ\250>\227\265\231>\374\225\236>Rr\243>xJ\250>O\036\255>\374\225\236>Rr\243>xJ\250>O\036\255>\270\355\261>Rr\243>xJ\250>O\036\255>\270\355\261>\222\270\266>xJ\250>O\036\255>\270\355\261>\222\270\266>\277~\273>O\036\255>\270\355\261>\222\270\266>\277~\273>\036@\300>\270\355\261>\222\270\266>\277~\273>\036@\300>\221\374\304>\222\270\266>\277~\273>\036@\300>\221\374\304>\371\263\311>\277~\273>\036@\300>\221\374\304>\371\263\311>7f\316>\036@\300>\221\374\304>\371\263\311>7f\316>,\023\323>\221\374\304>\371\263\311>7f\316>,\023\323>\272\272\327>\371\263\311>7f\316>,\023\323>\272\272\327>\301\\\334>7f\316>,\023\323>\272\272\327>\301\\\334>$\371\340>,\023\323>\272\272\327>\301\\\334>$\371\340>\304\217\345>\272\272\327>\301\\\334>$\371\340>\304\217\345>\204 \352>\301\\\334>$\371\340>\304\217\345>\204 \352>E\253\356>$\371\340>\304\217\345>\204 \352>E\253\356>\351/\363>\304\217\345>\204 \352>E\253\356>\351/\363>T\256\367>\204 \352>E\253\356>\351/\363>T\256\367>f&\374>E\253\356>\351/\363>T\256\367>f&\374>\002L\000?\351/\363>T\256\367>f&\374>\002L\000?\210\201\002?T\256\367>f&\374>\002L\000?\210\201\002?\267\263\004?f&\374>\002L\000?\210\201\002?\267\263\004?\200\342\006?\002L\000?\210\201\002?\267\263\004?\200\342\006?\324\r\t?\210\201\002?\267\263\004?\200\342\006?\324\r\t?\2465\013?\267\263\004?\200\342\006?\324\r\t?\2465\013?\350Y\r?\200\342\006?\324\r\t?\2465\013?\350Y\r?\213z\017?\324\r\t?\2465\013?\350Y\r?\213z\017?\202\227\021?\2465\013?\350Y\r?\213z\017?\202\227\021?\277\260\023?\350Y\r?\213z\017?\202\227\021?\277\260\023?3\306\025?\213z\017?\202\227\021?\277\260\023?3\306\025?\321\327\027?\202\227\021?\277\260\023?3\306\025?\321\327\027?\215\345\031?\277\260\023?3\306\025?\321\327\027?\215\345\031?W\357\033?3\306\025?\321\327\027?\215\345\031?W\357\033?#\365\035?\321\327\027?\215\345\031?W\357\033?#\365\035?\344\366\037?\215\345\031?W\357\033?#\365\035?\344\366\037?\215\364!?W\357\033?#\365\035?\344\366\037?\215\364!?\020\356#?#\365\035?\344\366\037?\215\364!?\020\356#?`\343%?\344\366\037?\215\364!?\020\356#?`\343%?q\324\'?\215\364!?\020\356#?`\343%?q\324\'?6\301)?\020\356#?`\343%?q\324\'?6\301)?\242\251+?`\343%?q\324\'?6\301)?\242\251+?\251\215-?q\324\'?6\301)?\242\251+?\251\215-?>m/?6\301)?\242\251+?\251\215-?>m/?UH1?\242\251+?\251\215-?>m/?UH1?\342\0363?\251\215-?>m/?UH1?\342\0363?\332\3604?>m/?UH1?\342\0363?\332\3604?/\2766?UH1?\342\0363?\332\3604?/\2766?\326\2068?\342\0363?\332\3604?/\2766?\326\2068?\304J:?\332\3604?/\2766?\326\2068?\304J:?\354\t<?/\2766?\326\2068?\304J:?\354\t<?D\304=?\326\2068?\304J:?\354\t<?D\304=?\301y??\304J:?\354\t<?D\304=?\301y??V*A?\354\t<?D\304=?\301y??V*A?\371\325B?D\304=?\301y??V*A?\371\325B?\236|D?\301y??V*A?\371\325B?\236|D?<\036F?V*A?\371\325B?\236|D?<\036F?\307\272G?\371\325B?\236|D?<\036F?\307\272G?5RI?\236|D?<\036F?\307\272G?5RI?|\344J?<\036F?\307\272G?5RI?|\344J?\220qL?\307\272G?5RI?|\344J?\220qL?h\371M?5RI?|\344J?\220qL?h\371M?\373{O?|\344J?\220qL?h\371M?\373{O?=\371P?\220qL?h\371M?\373{O?=\371P?%qR?h\371M?\373{O?=\371P?%qR?\252\343S?\373{O?=\371P?%qR?\252\343S?\302PU?=\371P?%qR?\252\343S?\302PU?d\270V?%qR?\252\343S?\302PU?d\270V?\206\032X?\252\343S?\302PU?d\270V?\206\032X? wY?\302PU?d\270V?\206\032X? wY?)\316Z?d\270V?\206\032X? wY?)\316Z?\227\037\\?\206\032X? wY?)\316Z?\227\037\\?bk]? wY?)\316Z?\227\037\\?bk]?\202\261^?)\316Z?\227\037\\?bk]?\202\261^?\356\361_?\227\037\\?bk]?\202\261^?\356\361_?\236,a?bk]?\202\261^?\356\361_?\236,a?\212ab?\202\261^?\356\361_?\236,a?\212ab?\253\220c?\356\361_?\236,a?\212ab?\253\220c?\370\271d?\236,a?\212ab?\253\220c?\370\271d?i\335e?\212ab?\253\220c?\370\271d?i\335e?\370\372f?\253\220c?\370\271d?i\335e?\370\372f?\234\022h?\370\271d?i\335e?\370\372f?\234\022h?P$i?i\335e?\370\372f?\234\022h?P$i?\0130j?\370\372f?\234\022h?P$i?\0130j?\3075k?\234\022h?P$i?\0130j?\3075k?~5l?P$i?\0130j?\3075k?~5l?(/m?\0130j?\3075k?~5l?(/m?\277\"n?\3075k?~5l?(/m?\277\"n?=\020o?~5l?(/m?\277\"n?=\020o?\235\367o?(/m?\277\"n?=\020o?\235\367o?\327\330p?\277\"n?=\020o?\235\367o?\327\330p?\347\263q?=\020o?\235\367o?\327\330p?\347\263q?\306\210r?\235\367o?\327\330p?\347\263q?\306\210r?pWs?\327\330p?\347\263q?\306\210r?pWs?\337\037t?\347\263q?\306\210r?pWs?\337\037t?\r\342t?\306\210r?pWs?\337\037t?\r\342t?\366\235u?pWs?\337\037t?\r\342t?\366\235u?\225Sv?\337\037t?\r\342t?\366\235u?\225Sv?\346\002w?\r\342t?\366\235u?\225Sv?\346\002w?\343\253w?\366\235u?\225Sv?\346\002w?\343\253w?\211Nx?\225Sv?\346\002w?\343\253w?\211Nx?\324\352x?\346\002w?\343\253w?\211Nx?\324\352x?\276\200y?\343\253w?\211Nx?\324\352x?\276\200y?F\020z?\211Nx?\324\352x?\276\200y?F\020z?f\231z?\324\352x?\276\200y?F\020z?f\231z?\033\034{?\276\200y?F\020z?f\231z?\033\034{?c\230{?F\020z?f\231z?\033\034{?c\230{?9\016|?f\231z?\033\034{?c\230{?9\016|?\234}|?\033\034{?c\230{?9\016|?\234}|?\207\346|?c\230{?9\016|?\234}|?\207\346|?\370H}?9\016|?\234}|?\207\346|?\370H}?\355\244}?\234}|?\207\346|?\370H}?\355\244}?d\372}?\207\346|?\370H}?\355\244}?d\372}?ZI~?\370H}?\355\244}?d\372}?ZI~?\315\221~?\355\244}?d\372}?ZI~?\315\221~?\273\323~?d\372}?ZI~?\315\221~?\273\323~?#\017\177?ZI~?\315\221~?\273\323~?#\017\177?\003D\177?\315\221~?\273\323~?#\017\177?\003D\177?Zr\177?\273\323~?#\017\177?\003D\177?Zr\177?&\232\177?#\017\177?\003D\177?Zr\177?&\232\177?g\273\177?\003D\177?Zr\177?&\232\177?g\273\177?\034\326\177?Zr\177?&\232\177?g\273\177?\034\326\177?D\352\177?&\232\177?g\273\177?\034\326\177?D\352\177?\336\367\177?g\273\177?\034\326\177?D\352\177?\336\367\177?\352\376\177?\034\326\177?D\352\177?\336\367\177?\352\376\177?i\377\177?D\352\177?\336\367\177?\352\376\177?i\377\177?Y\371\177?\336\367\177?\352\376\177?i\377\177?Y\371\177?\274\354\177?\352\376\177?i\377\177?Y\371\177?\274\354\177?\220\331\177?i\377\177?Y\371\177?\274\354\177?\220\331\177?\330\277\177?Y\371\177?\274\354\177?\220\331\177?\330\277\177?\224\237\177?\274\354\177?\220\331\177?\330\277\177?\224\237\177?\304x\177?\220\331\177?\330\277\177?\224\237\177?\304x\177?iK\177?\330\277\177?\224\237\177?\304x\177?iK\177?\205\027\177?\224\237\177?\304x\177?iK\177?\205\027\177?\031\335~?\304x\177?iK\177?\205\027\177?\031\335~?&\234~?iK\177?\205\027\177?\031\335~?&\234~?\256T~?\205\027\177?\031\335~?&\234~?\256T~?\264\006~?\031\335~?&\234~?\256T~?\264\006~?8\262}?&\234~?\256T~?\264\006~?8\262}?=W}?\256T~?\264\006~?8\262}?=W}?\305\365|?\264\006~?8\262}?=W}?\305\365|?\324\215|?8\262}?=W}?\305\365|?\324\215|?k\037|?=W}?\305\365|?\324\215|?k\037|?\215\252{?\305\365|?\324\215|?k\037|?\215\252{?>/{?\324\215|?k\037|?\215\252{?>/{?\200\255z?k\037|?\215\252{?>/{?\200\255z?W%z?\215\252{?>/{?\200\255z?W%z?\306\226y?>/{?\200\255z?W%z?\306\226y?\322\001y?\200\255z?W%z?\306\226y?\322\001y?}fx?W%z?\306\226y?\322\001y?}fx?\314\304w?\306\226y?\322\001y?}fx?\314\304w?\303\034w?\322\001y?}fx?\314\304w?\303\034w?fnv?}fx?\314\304w?\303\034w?fnv?\271\271u?\314\304w?\303\034w?fnv?\271\271u?\303\376t?\303\034w?fnv?\271\271u?\303\376t?\206=t?fnv?\271\271u?\303\376t?\206=t?\010vs?\271\271u?\303\376t?\206=t?\010vs?N\250r?\303\376t?\206=t?\010vs?N\250r?^\324q?\206=t?\010vs?N\250r?^\324q?=\372p?\010vs?N\250r?^\324q?=\372p?\360\031p?N\250r?^\324q?=\372p?\360\031p?}3o?^\324q?=\372p?\360\031p?}3o?\352Fn?=\372p?\360\031p?}3o?\352Fn?=Tm?\360\031p?}3o?\352Fn?=Tm?}[l?}3o?\352Fn?=Tm?}[l?\257\\k?\352Fn?=Tm?}[l?\257\\k?\333Wj?=Tm?}[l?\257\\k?\333Wj?\007Mi?}[l?\257\\k?\333Wj?\007Mi?9<h?\257\\k?\333Wj?\007Mi?9<h?y%g?\333Wj?\007Mi?9<h?y%g?\316\010f?\007Mi?9<h?y%g?\316\010f??\346d?9<h?y%g?\316\010f??\346d?\324\275c?y%g?\316\010f??\346d?\324\275c?\224\217b?\316\010f??\346d?\324\275c?\224\217b?\207[a??\346d?\324\275c?\224\217b?\207[a?\264!`?\324\275c?\224\217b?\207[a?\264!`?%\342^?\224\217b?\207[a?\264!`?%\342^?\340\234]?\207[a?\264!`?%\342^?\340\234]?\357Q\\?\264!`?%\342^?\340\234]?\357Q\\?Z\001[?%\342^?\340\234]?\357Q\\?Z\001[?)\253Y?\340\234]?\357Q\\?Z\001[?)\253Y?eOX?\357Q\\?Z\001[?)\253Y?eOX?\030\356V?Z\001[?)\253Y?eOX?\030\356V?I\207U?)\253Y?eOX?\030\356V?I\207U?\003\033T?eOX?\030\356V?I\207U?\003\033T?O\251R?\030\356V?I\207U?\003\033T?O\251R?62Q?I\207U?\003\033T?O\251R?62Q?\301\265O?\003\033T?O\251R?62Q?\301\265O?\3733N?O\251R?62Q?\301\265O?\3733N?\356\254L?62Q?\301\265O?\3733N?\356\254L?\242 K?\301\265O?\3733N?\356\254L?\242 K?$\217I?\3733N?\356\254L?\242 K?$\217I?|\370G?\356\254L?\242 K?$\217I?|\370G?\265\\F?\242 K?$\217I?|\370G?\265\\F?\332\273D?$\217I?|\370G?\265\\F?\332\273D?\366\025C?|\370G?\265\\F?\332\273D?\366\025C?\023kA?\265\\F?\332\273D?\366\025C?\023kA?<\273??\332\273D?\366\025C?\023kA?<\273??|\006>?\366\025C?\023kA?<\273??|\006>?\337L<?\023kA?<\273??|\006>?\337L<?o\216:?<\273??|\006>?\337L<?o\216:?8\3138?|\006>?\337L<?o\216:?8\3138?G\0037?\337L<?o\216:?8\3138?G\0037?\24565?o\216:?8\3138?G\0037?\24565?`e3?8\3138?G\0037?\24565?`e3?\203\2171?G\0037?\24565?`e3?\203\2171?\032\265/?\24565?`e3?\203\2171?\032\265/?1\326-?`e3?\203\2171?\032\265/?1\326-?\325\362+?\203\2171?\032\265/?1\326-?\325\362+?\021\013*?\032\265/?1\326-?\325\362+?\021\013*?\363\036(?1\326-?\325\362+?\021\013*?\363\036(?\207.&?\325\362+?\021\013*?\363\036(?\207.&?\3329$?\021\013*?\363\036(?\207.&?\3329$?\370@\"?\363\036(?\207.&?\3329$?\370@\"?\357C ?\207.&?\3329$?\370@\"?\357C ?\313B\036?\3329$?\370@\"?\357C ?\313B\036?\232=\034?\370@\"?\357C ?\313B\036?\232=\034?h4\032?\357C ?\313B\036?\232=\034?h4\032?D\'\030?\313B\036?\232=\034?h4\032?D\'\030?;\026\026?\232=\034?h4\032?D\'\030?;\026\026?Z\001\024?h4\032?D\'\030?;\026\026?Z\001\024?\256\350\021?D\'\030?;\026\026?Z\001\024?\256\350\021?F\314\017?;\026\026?Z\001\024?\256\350\021?F\314\017?0\254\r?Z\001\024?\256\350\021?F\314\017?0\254\r?y\210\013?\256\350\021?F\314\017?0\254\r?y\210\013?/a\t?F\314\017?0\254\r?y\210\013?/a\t?a6\007?0\254\r?y\210\013?/a\t?a6\007?\034\010\005?y\210\013?/a\t?a6\007?\034\010\005?p\326\002?/a\t?a6\007?\034\010\005?p\326\002?j\241\000?a6\007?\034\010\005?p\326\002?j\241\000?1\322\374>\034\010\005?p\326\002?j\241\000?1\322\374>\025[\370>p\326\002?j\241\000?1\322\374>\025[\370>\236\335\363>j\241\000?1\322\374>\025[\370>\236\335\363>\350Y\357>1\322\374>\025[\370>\236\335\363>\350Y\357>\021\320\352>\025[\370>\236\335\363>\350Y\357>\021\320\352>6@\346>\236\335\363>\350Y\357>\021\320\352>6@\346>w\252\341>\350Y\357>\021\320\352>6@\346>w\252\341>\360\016\335>\021\320\352>6@\346>w\252\341>\360\016\335>\300m\330>6@\346>w\252\341>\360\016\335>\300m\330>\006\307\323>w\252\341>\360\016\335>\300m\330>\006\307\323>\337\032\317>\360\016\335>\300m\330>\006\307\323>\337\032\317>ki\312>\300m\330>\006\307\323>\337\032\317>ki\312>\310\262\305>\006\307\323>\337\032\317>ki\312>\310\262\305>\026\367\300>\337\032\317>ki\312>\310\262\305>\026\367\300>r6\274>ki\312>\310\262\305>\026\367\300>r6\274>\375p\267>\310\262\305>\026\367\300>r6\274>\375p\267>\325\246\262>\026\367\300>r6\274>\375p\267>\325\246\262>\032\330\255>r6\274>\375p\267>\325\246\262>\032\330\255>\354\004\251>\375p\267>\325\246\262>\032\330\255>\354\004\251>j-\244>\325\246\262>\032\330\255>\354\004\251>j-\244>\263Q\237>\032\330\255>\354\004\251>j-\244>\263Q\237>\351q\232>\354\004\251>j-\244>\263Q\237>\351q\232>*\216\225>j-\244>\263Q\237>\351q\232>*\216\225>\226\246\220>\263Q\237>\351q\232>*\216\225>\226\246\220>O\273\213>\351q\232>*\216\225>\226\246\220>O\273\213>s\314\206>*\216\225>\226\246\220>O\273\213>s\314\206>$\332\201>\226\246\220>O\273\213>s\314\206>$\332\201>\004\311y>O\273\213>s\314\206>$\332\201>\004\311y>Z\327o>s\314\206>$\332\201>\004\311y>Z\327o>\214\337e>$\332\201>\004\311y>Z\327o>\214\337e>\334\341[>\004\311y>Z\327o>\214\337e>\334\341[>\212\336Q>Z\327o>\214\337e>\334\341[>\212\336Q>\330\325G>\214\337e>\334\341[>\212\336Q>\330\325G>\t\310=>\334\341[>\212\336Q>\330\325G>\t\310=>]\2653>\212\336Q>\330\325G>\t\310=>]\2653>\030\236)>\330\325G>\t\310=>]\2653>\030\236)>{\202\037>\t\310=>]\2653>\030\236)>{\202\037>\310b\025>]\2653>\030\236)>{\202\037>\310b\025>B?\013>\030\236)>{\202\037>\310b\025>B?\013>+\030\001>{\202\037>\310b\025>B?\013>+\030\001>\214\333\355=\310b\025>B?\013>+\030\001>\214\333\355=\253\200\331=B?\013>+\030\001>\214\333\355=\253\200\331=9 \305=+\030\001>\214\333\355=\253\200\331=9 \305=\272\272\260=\214\333\355=\253\200\331=9 \305=\272\272\260=\265P\234=\253\200\331=9 \305=\272\272\260=\265P\234=\257\342\207=9 \305=\272\272\260=\265P\234=\257\342\207=\\\342f=\272\272\260=\265P\234=\257\342\207=\\\342f=r\371==\265P\234=\257\342\207=\\\342f=r\371==\252\013\025=\257\342\207=\\\342f=r\371==\252\013\025=\"4\330<\\\342f=r\371==\252\013\025=\"4\330<gK\206<r\371==\252\013\025=\"4\330<gK\206<\360|\321;\252\013\025=\"4\330<gK\206<\360|\321;4rl\273\"4\330<gK\206<\360|\321;4rl\273\017\366^\274gK\206<\360|\321;4rl\273\017\366^\274\355d\301\274\360|\321;4rl\273\017\366^\274\355d\301\274\360\244\t\2754rl\273\017\366^\274\355d\301\274\360\244\t\275\343\2232\275\017\366^\274\355d\301\274\360\244\t\275\343\2232\275C~[\275\355d\301\274\360\244\t\275\343\2232\275C~[\275\2021\202\275\360\244\t\275\343\2232\275C~[\275\2021\202\275\216\240\226\275\343\2232\275C~[\275\2021\202\275\216\240\226\275\276\013\253\275C~[\275\2021\202\275\216\240\226\275\276\013\253\275\215r\277\275\2021\202\275\216\240\226\275\276\013\253\275\215r\277\275u\324\323\275\216\240\226\275\276\013\253\275\215r\277\275u\324\323\275\3600\350\275\276\013\253\275\215r\277\275u\324\323\275\3600\350\275z\207\374\275\215r\277\275u\324\323\275\3600\350\275z\207\374\275\306k\010\276u\324\323\275\3600\350\275z\207\374\275\306k\010\276Q\220\022\276\3600\350\275z\207\374\275\306k\010\276Q\220\022\276\033\261\034\276z\207\374\275\306k\010\276Q\220\022\276\033\261\034\276\342\315&\276\306k\010\276Q\220\022\276\033\261\034\276\342\315&\276d\3460\276Q\220\022\276\033\261\034\276\342\315&\276d\3460\276^\372:\276\033\261\034\276\342\315&\276d\3460\276^\372:\276\216\tE\276\342\315&\276d\3460\276^\372:\276\216\tE\276\263\023O\276d\3460\276^\372:\276\216\tE\276\263\023O\276\213\030Y\276^\372:\276\216\tE\276\263\023O\276\213\030Y\276\324\027c\276\216\tE\276\263\023O\276\213\030Y\276\324\027c\276L\021m\276\263\023O\276\213\030Y\276\324\027c\276L\021m\276\262\004w\276\213\030Y\276\324\027c\276L\021m\276\262\004w\276\342x\200\276\324\027c\276L\021m\276\262\004w\276\342x\200\276\"l\205\276L\021m\276\262\004w\276\342x\200\276\"l\205\276\366[\212\276\262\004w\276\342x\200\276\"l\205\276\366[\212\276@H\217\276\342x\200\276\"l\205\276\366[\212\276@H\217\276\3370\224\276\"l\205\276\366[\212\276@H\217\276\3370\224\276\262\025\231\276\366[\212\276@H\217\276\3370\224\276\262\025\231\276\232\366\235\276@H\217\276\3370\224\276\262\025\231\276\232\366\235\276w\323\242\276\3370\224\276\262\025\231\276\232\366\235\276w\323\242\276(\254\247\276\262\025\231\276\232\366\235\276w\323\242\276(\254\247\276\216\200\254\276\232\366\235\276w\323\242\276(\254\247\276\216\200\254\276\211P\261\276w\323\242\276(\254\247\276\216\200\254\276\211P\261\276\372\033\266\276(\254\247\276\216\200\254\276\211P\261\276\372\033\266\276\301\342\272\276\216\200\254\276\211P\261\276\372\033\266\276\301\342\272\276\300\244\277\276\211P\261\276\372\033\266\276\301\342\272\276\300\244\277\276\326a\304\276\372\033\266\276\301\342\272\276\300\244\277\276\326a\304\276\345\031\311\276\301\342\272\276\300\244\277\276\326a\304\276\345\031\311\276\315\314\315\276\300\244\277\276\326a\304\276\345\031\311\276\315\314\315\276qz\322\276\326a\304\276\345\031\311\276\315\314\315\276qz\322\276\261\"\327\276\345\031\311\276\315\314\315\276qz\322\276\261\"\327\276o\305\333\276\315\314\315\276qz\322\276\261\"\327\276o\305\333\276\214b\340\276qz\322\276\261\"\327\276o\305\333\276\214b\340\276\353\371\344\276\261\"\327\276o\305\333\276\214b\340\276\353\371\344\276l\213\351\276o\305\333\276\214b\340\276\353\371\344\276l\213\351\276\363\026\356\276\214b\340\276\353\371\344\276l\213\351\276\363\026\356\276a\234\362\276\353\371\344\276l\213\351\276\363\026\356\276a\234\362\276\231\033\367\276l\213\351\276\363\026\356\276a\234\362\276\231\033\367\276}\224\373\276\363\026\356\276a\234\362\276\231\033\367\276}\224\373\276x\003\000\277a\234\362\276\231\033\367\276}\224\373\276x\003\000\277j9\002\277\231\033\367\276}\224\373\276x\003\000\277j9\002\277\007l\004\277}\224\373\276x\003\000\277j9\002\277\007l\004\277@\233\006\277x\003\000\277j9\002\277\007l\004\277@\233\006\277\006\307\010\277j9\002\277\007l\004\277@\233\006\277\006\307\010\277L\357\n\277\007l\004\277@\233\006\277\006\307\010\277L\357\n\277\003\024\r\277@\233\006\277\006\307\010\277L\357\n\277\003\024\r\277\0365\017\277\006\307\010\277L\357\n\277\003\024\r\277\0365\017\277\216R\021\277L\357\n\277\003\024\r\277\0365\017\277\216R\021\277El\023\277\003\024\r\277\0365\017\277\216R\021\277El\023\2776\202\025\277\0365\017\277\216R\021\277El\023\2776\202\025\277R\224\027\277\216R\021\277El\023\2776\202\025\277R\224\027\277\216\242\031\277El\023\2776\202\025\277R\224\027\277\216\242\031\277\332\254\033\2776\202\025\277R\224\027\277\216\242\031\277\332\254\033\277*\263\035\277R\224\027\277\216\242\031\277\332\254\033\277*\263\035\277p\265\037\277\216\242\031\277\332\254\033\277*\263\035\277p\265\037\277\237\263!\277\332\254\033\277*\263\035\277p\265\037\277\237\263!\277\252\255#\277*\263\035\277p\265\037\277\237\263!\277\252\255#\277\205\243%\277p\265\037\277\237\263!\277\252\255#\277\205\243%\277!\225\'\277\237\263!\277\252\255#\277\205\243%\277!\225\'\277s\202)\277\252\255#\277\205\243%\277!\225\'\277s\202)\277nk+\277\205\243%\277!\225\'\277s\202)\277nk+\277\006P-\277!\225\'\277s\202)\277nk+\277\006P-\277-0/\277s\202)\277nk+\277\006P-\277-0/\277\330\0131\277nk+\277\006P-\277-0/\277\330\0131\277\373\3422\277\006P-\277-0/\277\330\0131\277\373\3422\277\211\2654\277-0/\277\330\0131\277\373\3422\277\211\2654\277v\2036\277\330\0131\277\373\3422\277\211\2654\277v\2036\277\267L8\277\373\3422\277\211\2654\277v\2036\277\267L8\277@\021:\277\211\2654\277v\2036\277\267L8\277@\021:\277\006\321;\277v\2036\277\267L8\277@\021:\277\006\321;\277\374\213=\277\267L8\277@\021:\277\006\321;\277\374\213=\277\030B?\277@\021:\277\006\321;\277\374\213=\277\030B?\277N\363@\277\006\321;\277\374\213=\277\030B?\277N\363@\277\223\237B\277\374\213=\277\030B?\277N\363@\277\223\237B\277\335FD\277\030B?\277N\363@\277\223\237B\277\335FD\277 \351E\277N\363@\277\223\237B\277\335FD\277 \351E\277R\206G\277\223\237B\277\335FD\277 \351E\277R\206G\277h\036I\277\335FD\277 \351E\277R\206G\277h\036I\277W\261J\277 \351E\277R\206G\277h\036I\277W\261J\277\026?L\277R\206G\277h\036I\277W\261J\277\026?L\277\233\307M\277h\036I\277W\261J\277\026?L\277\233\307M\277\332JO\277W\261J\277\026?L\277\233\307M\277\332JO\277\313\310P\277\026?L\277\233\307M\277\332JO\277\313\310P\277cAR\277\233\307M\277\332JO\277\313\310P\277cAR\277\231\264S\277\332JO\277\313\310P\277cAR\277\231\264S\277c\"U\277\313\310P\277cAR\277\231\264S\277c\"U\277\270\212V\277cAR\277\231\264S\277c\"U\277\270\212V\277\217\355W\277\231\264S\277c\"U\277\270\212V\277\217\355W\277\336JY\277c\"U\277\270\212V\277\217\355W\277\336JY\277\235\242Z\277\270\212V\277\217\355W\277\336JY\277\235\242Z\277\303\364[\277\217\355W\277\336JY\277\235\242Z\277\303\364[\277GA]\277\336JY\277\235\242Z\277\303\364[\277GA]\277!\210^\277\235\242Z\277\303\364[\277GA]\277!\210^\277H\311_\277\303\364[\277GA]\277!\210^\277H\311_\277\265\004a\277GA]\277!\210^\277H\311_\277\265\004a\277^:b\277!\210^\277H\311_\277\265\004a\277^:b\277=jc\277H\311_\277\265\004a\277^:b\277=jc\277H\224d\277\265\004a\277^:b\277=jc\277H\224d\277z\270e\277^:b\277=jc\277H\224d\277z\270e\277\312\326f\277=jc\277H\224d\277z\270e\277\312\326f\2770\357g\277H\224d\277z\270e\277\312\326f\2770\357g\277\247\001i\277z\270e\277\312\326f\2770\357g\277\247\001i\277&\016j\277\312\326f\2770\357g\277\247\001i\277&\016j\277\246\024k\2770\357g\277\247\001i\277&\016j\277\246\024k\277\"\025l\277\247\001i\277&\016j\277\246\024k\277\"\025l\277\223\017m\277&\016j\277\246\024k\277\"\025l\277\223\017m\277\361\003n\277\246\024k\277\"\025l\277\223\017m\277\361\003n\2778\362n\277\"\025l\277\223\017m\277\361\003n\2778\362n\277`\332o\277\223\017m\277\361\003n\2778\362n\277`\332o\277d\274p\277\361\003n\2778\362n\277`\332o\277d\274p\277=\230q\2778\362n\277`\332o\277d\274p\277=\230q\277\350mr\277`\332o\277d\274p\277=\230q\277\350mr\277]=s\277d\274p\277=\230q\277\350mr\277]=s\277\230\006t\277=\230q\277\350mr\277]=s\277\230\006t\277\223\311t\277\350mr\277]=s\277\230\006t\277\223\311t\277J\206u\277]=s\277\230\006t\277\223\311t\277J\206u\277\267<v\277\230\006t\277\223\311t\277J\206u\277\267<v\277\326\354v\277\223\311t\277J\206u\277\267<v\277\326\354v\277\243\226w\277J\206u\277\267<v\277\326\354v\277\243\226w\277\031:x\277\267<v\277\326\354v\277\243\226w\277\031:x\2773\327x\277\326\354v\277\243\226w\277\031:x\2773\327x\277\357my\277\243\226w\277\031:x\2773\327x\277\357my\277G\376y\277\031:x\2773\327x\277\357my\277G\376y\2779\210z\2773\327x\277\357my\277G\376y\2779\210z\277\301\013{\277\357my\277G\376y\2779\210z\277\301\013{\277\333\210{\277G\376y\2779\210z\277\301\013{\277\333\210{\277\205\377{\2779\210z\277\301\013{\277\333\210{\277\205\377{\277\272o|\277\301\013{\277\333\210{\277\205\377{\277\272o|\277y\331|\277\333\210{\277\205\377{\277\272o|\277y\331|\277\277<}\277\205\377{\277\272o|\277y\331|\277\277<}\277\210\231}\277\272o|\277y\331|\277\277<}\277\210\231}\277\323\357}\277y\331|\277\277<}\277\210\231}\277\323\357}\277\236?~\277\277<}\277\210\231}\277\323\357}\277\236?~\277\346\210~\277\210\231}\277\323\357}\277\236?~\277\346\210~\277\252\313~\277\323\357}\277\236?~\277\346\210~\277\252\313~\277\350\007\177\277\236?~\277\346\210~\277\252\313~\277\350\007\177\277\236=\177\277\346\210~\277\252\313~\277\350\007\177\277\236=\177\277\312l\177\277\252\313~\277\350\007\177\277\236=\177\277\312l\177\277m\225\177\277\350\007\177\277\236=\177\277\312l\177\277m\225\177\277\204\267\177\277\236=\177\277\312l\177\277m\225\177\277\204\267\177\277\017\323\177\277\312l\177\277m\225\177\277\204\267\177\277\017\323\177\277\r\350\177\277m\225\177\277\204\267\177\277\017\323\177\277\r\350\177\277~\366\177\277\204\267\177\277\017\323\177\277\r\350\177\277~\366\177\277a\376\177\277\017\323\177\277\r\350\177\277~\366\177\277a\376\177\277\266\377\177\277\r\350\177\277~\366\177\277a\376\177\277\266\377\177\277}\372\177\277~\366\177\277a\376\177\277\266\377\177\277}\372\177\277\266\356\177\277a\376\177\277\266\377\177\277}\372\177\277\266\356\177\277a\334\177\277\266\377\177\277}\372\177\277\266\356\177\277a\334\177\277\200\303\177\277}\372\177\277\266\356\177\277a\334\177\277\200\303\177\277\021\244\177\277\266\356\177\277a\334\177\277\200\303\177\277\021\244\177\277\027~\177\277a\334\177\277\200\303\177\277\021\244\177\277\027~\177\277\223Q\177\277\200\303\177\277\021\244\177\277\027~\177\277\223Q\177\277\205\036\177\277\021\244\177\277\027~\177\277\223Q\177\277\205\036\177\277\356\344~\277\027~\177\277\223Q\177\277\205\036\177\277\356\344~\277\321\244~\277\223Q\177\277\205\036\177\277\356\344~\277\321\244~\277.^~\277\205\036\177\277\356\344~\277\321\244~\277.^~\277\t\021~\277\356\344~\277\321\244~\277.^~\277\t\021~\277a\275}\277\321\244~\277.^~\277\t\021~\277a\275}\277;c}\277.^~\277\t\021~\277a\275}\277;c}\277\230\002}\277\t\021~\277a\275}\277;c}\277\230\002}\277z\233|\277a\275}\277;c}\277\230\002}\277z\233|\277\345-|\277;c}\277\230\002}\277z\233|\277\345-|\277\332\271{\277\230\002}\277z\233|\277\345-|\277\332\271{\277]?{\277z\233|\277\345-|\277\332\271{\277]?{\277r\276z\277\345-|\277\332\271{\277]?{\277r\276z\277\0337z\277\332\271{\277]?{\277r\276z\277\0337z\277\\\251y\277]?{\277r\276z\277\0337z\277\\\251y\2778\025y\277r\276z\277\0337z\277\\\251y\2778\025y\277\264zx\277\0337z\277\\\251y\2778\025y\277\264zx\277\323\331w\277\\\251y\2778\025y\277\264zx\277\323\331w\277\2312w\2778\025y\277\264zx\277\323\331w\277\2312w\277\013\205v\277\264zx\277\323\331w\277\2312w\277\013\205v\277-\321u\277\323\331w\277\2312w\277\013\205v\277-\321u\277\003\027u\277\2312w\277\013\205v\277-\321u\277\003\027u\277\224Vt\277\013\205v\277-\321u\277\003\027u\277\224Vt\277\342\217s\277-\321u\277\003\027u\277\224Vt\277\342\217s\277\364\302r\277\003\027u\277\224Vt\277\342\217s\277\364\302r\277\317\357q\277\224Vt\277\342\217s\277\364\302r\277\317\357q\277x\026q\277\342\217s\277\364\302r\277\317\357q\277x\026q\277\3656p\277\364\302r\277\317\357q\277x\026q\277\3656p\277KQo\277\317\357q\277x\026q\277\3656p\277KQo\277\200en\277x\026q\277\3656p\277KQo\277\200en\277\233sm\277\3656p\277KQo\277\200en\277\233sm\277\241{l\277KQo\277\200en\277\233sm\277\241{l\277\231}k\277\200en\277\233sm\277\241{l\277\231}k\277\212yj\277\233sm\277\241{l\277\231}k\277\212yj\277yoi\277\241{l\277\231}k\277\212yj\277yoi\277o_h\277\231}k\277\212yj\277yoi\277o_h\277qIg\277\212yj\277yoi\277o_h\277qIg\277\207-f\277yoi\277o_h\277qIg\277\207-f\277\271\013e\277o_h\277qIg\277\207-f\277\271\013e\277\r\344c\277qIg\277\207-f\277\271\013e\277\r\344c\277\213\266b\277\207-f\277\271\013e\277\r\344c\277\213\266b\277;\203a\277\271\013e\277\r\344c\277\213\266b\277;\203a\277%J`\277\r\344c\277\213\266b\277;\203a\277%J`\277Q\013_\277\213\266b\277;\203a\277%J`\277Q\013_\277\307\306]\277;\203a\277%J`\277Q\013_\277\307\306]\277\217|\\\277%J`\277Q\013_\277\307\306]\277\217|\\\277\262,[\277Q\013_\277\307\306]\277\217|\\\277\262,[\2778\327Y\277\307\306]\277\217|\\\277\262,[\2778\327Y\277*|X\277\217|\\\277\262,[\2778\327Y\277*|X\277\222\033W\277\262,[\2778\327Y\277*|X\277\222\033W\277w\265U\2778\327Y\277*|X\277\222\033W\277w\265U\277\343IT\277*|X\277\222\033W\277w\265U\277\343IT\277\340\330R\277\222\033W\277w\265U\277\343IT\277\340\330R\277wbQ\277w\265U\277\343IT\277\340\330R\277wbQ\277\261\346O\277\343IT\277\340\330R\277wbQ\277\261\346O\277\231eN\277\340\330R\277wbQ\277\261\346O\277\231eN\2778\337L\277wbQ\277\261\346O\277\231eN\2778\337L\277\227SK\277\261\346O\277\231eN\2778\337L\277\227SK\277\302\302I\277\231eN\2778\337L\277\227SK\277\302\302I\277\303,H\2778\337L\277\227SK\277\302\302I\277\303,H\277\243\221F\277\227SK\277\302\302I\277\303,H\277\243\221F\277n\361D\277\302\302I\277\303,H\277\243\221F\277n\361D\277.LC\277\303,H\277\243\221F\277n\361D\277.LC\277\356\241A\277\243\221F\277n\361D\277.LC\277\356\241A\277\270\362?\277n\361D\277.LC\277\356\241A\277\270\362?\277\230>>\277.LC\277\356\241A\277\270\362?\277\230>>\277\231\205<\277\356\241A\277\270\362?\277\230>>\277\231\205<\277\307\307:\277\270\362?\277\230>>\277\231\205<\277\307\307:\277,\0059\277\230>>\277\231\205<\277\307\307:\277,\0059\277\325=7\277\231\205<\277\307\307:\277,\0059\277\325=7\277\314q5\277\307\307:\277,\0059\277\325=7\277\314q5\277\036\2413\277,\0059\277\325=7\277\314q5\277\036\2413\277\326\3131\277\325=7\277\314q5\277\036\2413\277\326\3131\277\001\362/\277\314q5\277\036\2413\277\326\3131\277\001\362/\277\253\023.\277\036\2413\277\326\3131\277\001\362/\277\253\023.\277\3400,\277\326\3131\277\001\362/\277\253\023.\277\3400,\277\254I*\277\001\362/\277\253\023.\277\3400,\277\254I*\277\034^(\277\253\023.\277\3400,\277\254I*\277\034^(\277<n&\277\3400,\277\254I*\277\034^(\277<n&\277\031z$\277\254I*\277\034^(\277<n&\277\031z$\277\300\201\"\277\034^(\277<n&\277\031z$\277\300\201\"\277>\205 \277<n&\277\031z$\277\300\201\"\277>\205 